{
  "version": "1.0",
  "truncation": null,
  "padding": null,
  "added_tokens": [
    {
      "id": 0,
      "content": "<s>",
      "single_word": false,
      "lstrip": false,
      "rstrip": false,
      "normalized": false,
      "special": true
    },
    {
      "id": 1,
      "content": "</s>",
      "single_word": false,
      "lstrip": false,
      "rstrip": false,
      "normalized": false,
      "special": true
    },
    {
      "id": 2,
      "content": "[PAD]",
      "single_word": false,
      "lstrip": false,
      "rstrip": false,
      "normalized": false,
      "special": true
    }
  ],
  "normalizer": null,
  "pre_tokenizer": {
    "type": "ByteLevel",
    "add_prefix_space": false,
    "trim_offsets": true,
    "use_regex": true
  },
  "post_processor": {
    "type": "TemplateProcessing",
    "single": [
      {
        "SpecialToken": {
          "id": "<s>",
          "type_id": 0
        }
      },
      {
        "Sequence": {
          "id": "A",
          "type_id": 0
        }
      },
      {
        "SpecialToken": {
          "id": "</s>",
          "type_id": 0
        }
      }
    ],
    "pair": [
      {
        "Sequence": {
          "id": "A",
          "type_id": 0
        }
      },
      {
        "Sequence": {
          "id": "B",
          "type_id": 1
        }
      }
    ],
    "special_tokens": {
      "</s>": {
        "id": "</s>",
        "ids": [
          1
        ],
        "tokens": [
          "</s>"
        ]
      },
      "<s>": {
        "id": "<s>",
        "ids": [
          0
        ],
        "tokens": [
          "<s>"
        ]
      },
      "[PAD]": {
        "id": "[PAD]",
        "ids": [
          2
        ],
        "tokens": [
          "[PAD]"
        ]
      }
    }
  },
  "decoder": {
    "type": "ByteLevel",
    "add_prefix_space": true,
    "trim_offsets": true,
    "use_regex": true
  },
  "model": {
    "type": "BPE",
    "dropout": null,
    "unk_token": null,
    "continuing_subword_prefix": null,
    "end_of_word_suffix": null,
    "fuse_unk": false,
    "byte_fallback": false,
    "vocab": {
      "<s>": 0,
      "</s>": 1,
      "[PAD]": 2,
      "!": 3,
      "\"": 4,
      "&": 5,
      "'": 6,
      "(": 7,
      ")": 8,
      "*": 9,
      "+": 10,
      ",": 11,
      "-": 12,
      ".": 13,
      "/": 14,
      "0": 15,
      "1": 16,
      "2": 17,
      "3": 18,
      "4": 19,
      "5": 20,
      "6": 21,
      "7": 22,
      "8": 23,
      "9": 24,
      ":": 25,
      ";": 26,
      "<": 27,
      "=": 28,
      ">": 29,
      "?": 30,
      "A": 31,
      "B": 32,
      "C": 33,
      "D": 34,
      "E": 35,
      "F": 36,
      "G": 37,
      "H": 38,
      "I": 39,
      "J": 40,
      "K": 41,
      "L": 42,
      "M": 43,
      "N": 44,
      "O": 45,
      "P": 46,
      "Q": 47,
      "R": 48,
      "S": 49,
      "T": 50,
      "U": 51,
      "V": 52,
      "W": 53,
      "X": 54,
      "Y": 55,
      "Z": 56,
      "[": 57,
      "]": 58,
      "_": 59,
      "a": 60,
      "b": 61,
      "c": 62,
      "d": 63,
      "e": 64,
      "f": 65,
      "g": 66,
      "h": 67,
      "i": 68,
      "j": 69,
      "k": 70,
      "l": 71,
      "m": 72,
      "n": 73,
      "o": 74,
      "p": 75,
      "q": 76,
      "r": 77,
      "s": 78,
      "t": 79,
      "u": 80,
      "v": 81,
      "w": 82,
      "x": 83,
      "y": 84,
      "z": 85,
      "¡": 86,
      "¢": 87,
      "£": 88,
      "¤": 89,
      "¦": 90,
      "§": 91,
      "¨": 92,
      "©": 93,
      "ª": 94,
      "«": 95,
      "¬": 96,
      "®": 97,
      "¯": 98,
      "°": 99,
      "±": 100,
      "²": 101,
      "³": 102,
      "´": 103,
      "µ": 104,
      "¶": 105,
      "¹": 106,
      "º": 107,
      "»": 108,
      "¼": 109,
      "½": 110,
      "¿": 111,
      "Â": 112,
      "Ã": 113,
      "Å": 114,
      "Î": 115,
      "Ï": 116,
      "Ð": 117,
      "â": 118,
      "Ġ": 119,
      "Ģ": 120,
      "Ĥ": 121,
      "Ħ": 122,
      "Ĩ": 123,
      "ĩ": 124,
      "Ī": 125,
      "ī": 126,
      "Ĭ": 127,
      "Į": 128,
      "İ": 129,
      "ı": 130,
      "Ĳ": 131,
      "Ĵ": 132,
      "ĵ": 133,
      "Ķ": 134,
      "ĺ": 135,
      "Ļ": 136,
      "Ľ": 137,
      "ľ": 138,
      "Ŀ": 139,
      "ł": 140,
      "Ń": 141,
      "Ġd": 142,
      "Ġl": 143,
      "en": 144,
      "ai": 145,
      "es": 146,
      "Ã©": 147,
      "Ġp": 148,
      "Ġs": 149,
      "ou": 150,
      "on": 151,
      "Ġc": 152,
      "re": 153,
      "Ġa": 154,
      "qu": 155,
      "an": 156,
      "Ġm": 157,
      "Ġde": 158,
      "er": 159,
      "Ġt": 160,
      "Ġqu": 161,
      "et": 162,
      "ent": 163,
      "ait": 164,
      "in": 165,
      "le": 166,
      "Ġf": 167,
      "il": 168,
      "ar": 169,
      "is": 170,
      "it": 171,
      "Ġn": 172,
      "Ġv": 173,
      "eu": 174,
      "un": 175,
      "âĢ": 176,
      "Ġla": 177,
      "Ġet": 178,
      "Ġb": 179,
      "el": 180,
      "Ġj": 181,
      "or": 182,
      "âĢĻ": 183,
      "Ġle": 184,
      "Ãł": 185,
      "te": 186,
      "ais": 187,
      "om": 188,
      "as": 189,
      "Ġr": 190,
      "Ġun": 191,
      "our": 192,
      "ous": 193,
      "ant": 194,
      "ĠÃł": 195,
      "Ġh": 196,
      "us": 197,
      "Ã©t": 198,
      "Ġque": 199,
      "ur": 200,
      "Ġen": 201,
      "ir": 202,
      "me": 203,
      "at": 204,
      "he": 205,
      "Ġles": 206,
      "Ã¨": 207,
      "au": 208,
      "Ġav": 209,
      "em": 210,
      "Ġg": 211,
      "Ġre": 212,
      "ans": 213,
      "Ġpr": 214,
      "al": 215,
      "eur": 216,
      "ce": 217,
      "ion": 218,
      "ch": 219,
      "Ġil": 220,
      "tre": 221,
      "Ġpar": 222,
      "Ġau": 223,
      "elle": 224,
      "Ġpas": 225,
      "Ġje": 226,
      "est": 227,
      "Ġse": 228,
      "ri": 229,
      "Ġne": 230,
      "av": 231,
      "Ġdes": 232,
      "oi": 233,
      "Ãª": 234,
      "Ġqui": 235,
      "ui": 236,
      "ĠÃ©t": 237,
      "ag": 238,
      "Ġpl": 239,
      "Ġo": 240,
      "ien": 241,
      "se": 242,
      "Ġtr": 243,
      "end": 244,
      "out": 245,
      "Ġune": 246,
      "ain": 247,
      "and": 248,
      "Ġcom": 249,
      "Ġch": 250,
      "Ġdans": 251,
      "--": 252,
      "aient": 253,
      "Ġdu": 254,
      "ouv": 255,
      "Ġpour": 256,
      "ment": 257,
      "ont": 258,
      "ab": 259,
      "Ġin": 260,
      "Ġthe": 261,
      "Ã©e": 262,
      "Ġw": 263,
      "os": 264,
      "ie": 265,
      "onn": 266,
      "res": 267,
      "Ġce": 268,
      "Ġvous": 269,
      "Ã©s": 270,
      "ons": 271,
      "ol": 272,
      "am": 273,
      "ĠM": 274,
      "Ġsur": 275,
      "ort": 276,
      "ec": 277,
      "Ġme": 278,
      "ut": 279,
      "ap": 280,
      "ois": 281,
      "que": 282,
      "Ġson": 283,
      "de": 284,
      "Ġlui": 285,
      "Ã©c": 286,
      "ff": 287,
      "Ã©p": 288,
      "Ġplus": 289,
      "ers": 290,
      "Ġe": 291,
      "im": 292,
      "pr": 293,
      "oir": 294,
      "Ġsa": 295,
      "les": 296,
      "ig": 297,
      "ing": 298,
      "ac": 299,
      "ĠC": 300,
      "Il": 301,
      "Ġan": 302,
      "eux": 303,
      "Ã¨re": 304,
      "ette": 305,
      "Ġtout": 306,
      "uis": 307,
      "ĠÃ©tait": 308,
      "ot": 309,
      "ne": 310,
      "Ġnous": 311,
      "Ġavait": 312,
      "ement": 313,
      "Ġy": 314,
      "Ġavec": 315,
      "ond": 316,
      "si": 317,
      "Ġgr": 318,
      "Ġmais": 319,
      "Ġsi": 320,
      "Ġto": 321,
      "ard": 322,
      "ad": 323,
      "Ġdit": 324,
      "Ġmon": 325,
      "oin": 326,
      "Ġelle": 327,
      "ic": 328,
      "ier": 329,
      "Â«": 330,
      "aire": 331,
      "iv": 332,
      "ille": 333,
      "Je": 334,
      "ĠP": 335,
      "Ã©r": 336,
      "Ġth": 337,
      "Ġal": 338,
      "Ġof": 339,
      "Ã¢": 340,
      "Ġbien": 341,
      "Ã§": 342,
      "Ġon": 343,
      "ure": 344,
      "Ġcette": 345,
      "Ã®": 346,
      "Â»": 347,
      "Ġses": 348,
      "Ġcomme": 349,
      "Ã¨s": 350,
      "ul": 351,
      "ue": 352,
      "oy": 353,
      "Ġma": 354,
      "id": 355,
      "ation": 356,
      "une": 357,
      "age": 358,
      "ux": 359,
      "ess": 360,
      "ire": 361,
      "ge": 362,
      "ill": 363,
      "ĠS": 364,
      "ĠL": 365,
      "ĠdÃ©": 366,
      "Ġent": 367,
      "Ġdis": 368,
      "mes": 369,
      "Ã´": 370,
      "Ġpro": 371,
      "Ġcon": 372,
      "Ã©tait": 373,
      "Ġest": 374,
      "eau": 375,
      "Ġcr": 376,
      "able": 377,
      "ez": 378,
      "Ġfr": 379,
      "Ġ!": 380,
      "Ġbr": 381,
      "ors": 382,
      "Ġquel": 383,
      "emp": 384,
      "lle": 385,
      "ord": 386,
      "Ġpeu": 387,
      "ĠÃ©": 388,
      "uit": 389,
      "Ġex": 390,
      "Ġar": 391,
      "Ġleur": 392,
      "Ġou": 393,
      "oul": 394,
      "Ã»": 395,
      "ore": 396,
      "ter": 397,
      "oup": 398,
      "ĠA": 399,
      "âĢĵ": 400,
      "Ġser": 401,
      "oute": 402,
      "ine": 403,
      "bl": 404,
      "ert": 405,
      "Ãªtre": 406,
      "Ġdev": 407,
      "ĠrÃ©p": 408,
      "aut": 409,
      "Ġas": 410,
      "ens": 411,
      "ble": 412,
      "itÃ©": 413,
      "Ġap": 414,
      "ions": 415,
      "Ġat": 416,
      "iss": 417,
      "Ġdeux": 418,
      "Ġdem": 419,
      "Ġfor": 420,
      "Ġsu": 421,
      "ours": 422,
      "ay": 423,
      "..": 424,
      "Ġmar": 425,
      "Ġsans": 426,
      "otre": 427,
      "che": 428,
      "ĠB": 429,
      "Ãªme": 430,
      "Ġces": 431,
      "Ġand": 432,
      "omme": 433,
      "op": 434,
      "Ã´t": 435,
      "ĠD": 436,
      "tr": 437,
      "oit": 438,
      "Ġgrand": 439,
      "Ã©es": 440,
      "Ġall": 441,
      "Ġmoi": 442,
      "ieu": 443,
      "ang": 444,
      "ĠE": 445,
      "ĠF": 446,
      "endre": 447,
      "agn": 448,
      "Ġfait": 449,
      "aiss": 450,
      "ence": 451,
      "Ġcar": 452,
      "Ġhe": 453,
      "Ġwh": 454,
      "Ġche": 455,
      "Ġam": 456,
      "ed": 457,
      "ance": 458,
      "Ġ;": 459,
      "Le": 460,
      "Ġpass": 461,
      "ĠJ": 462,
      "Ġmain": 463,
      "ante": 464,
      "app": 465,
      "Ġpart": 466,
      "ong": 467,
      "ques": 468,
      "cc": 469,
      "all": 470,
      "pl": 471,
      "onc": 472,
      "Ã¹": 473,
      "iÃ¨re": 474,
      "ĠN": 475,
      "Ġreg": 476,
      "endant": 477,
      "Ġfaire": 478,
      "Ġ?": 479,
      "omb": 480,
      "Ãªt": 481,
      "ieur": 482,
      "st": 483,
      "ve": 484,
      "Ġim": 485,
      "ass": 486,
      "ĠR": 487,
      "Ã»t": 488,
      "ver": 489,
      "Ġenc": 490,
      "Ġfut": 491,
      "ĠÂ»": 492,
      "Ġcel": 493,
      "um": 494,
      "ĠG": 495,
      "eure": 496,
      "ite": 497,
      "air": 498,
      "Ġtrouv": 499,
      "if": 500,
      "Ġcont": 501,
      "orte": 502,
      "Qu": 503,
      "ĠoÃ¹": 504,
      "anc": 505,
      "ĠrÃ©": 506,
      "Ġthat": 507,
      "Ġencore": 508,
      "Ã©n": 509,
      "Ġpouv": 510,
      "ĠrÃ©pond": 511,
      "Ġaux": 512,
      "ci": 513,
      "Ġjus": 514,
      "ign": 515,
      "art": 516,
      "aine": 517,
      "ace": 518,
      "ils": 519,
      "Ġmes": 520,
      "Ġhis": 521,
      "rent": 522,
      "Ġpuis": 523,
      "Mais": 524,
      "Ġven": 525,
      "ct": 526,
      "ĠI": 527,
      "oint": 528,
      "Ġman": 529,
      "ĠV": 530,
      "ith": 531,
      "Ġper": 532,
      "Ġseu": 533,
      "Ġregard": 534,
      "ĠÃ©tÃ©": 535,
      "cher": 536,
      "ĠH": 537,
      "Ġter": 538,
      "enc": 539,
      "Ġaus": 540,
      "avait": 541,
      "Ġtemp": 542,
      "Ġwas": 543,
      "ĠmÃªme": 544,
      "Ġpet": 545,
      "Ġrem": 546,
      "ĠT": 547,
      "aux": 548,
      "ieux": 549,
      "Ġcour": 550,
      "Ġils": 551,
      "pos": 552,
      "Ġdonn": 553,
      "ĠÃ©c": 554,
      "ail": 555,
      "Ġdont": 556,
      "Ġdemand": 557,
      "ose": 558,
      "Ġmal": 559,
      "ra": 560,
      "int": 561,
      "ourn": 562,
      "esp": 563,
      "Ġlong": 564,
      "Ãªte": 565,
      "Ġbe": 566,
      "Ġdire": 567,
      "up": 568,
      "Ġpoint": 569,
      "La": 570,
      "Ġfem": 571,
      "Ġcons": 572,
      "rem": 573,
      "Ã©d": 574,
      "ique": 575,
      "Ġdonc": 576,
      "tres": 577,
      "lement": 578,
      "Ġjeu": 579,
      "avais": 580,
      "ten": 581,
      "elles": 582,
      "Ġenf": 583,
      "Ġcomm": 584,
      "Et": 585,
      "Ã¨rent": 586,
      "prÃ¨s": 587,
      "onne": 588,
      "Ġquelque": 589,
      "Ġrien": 590,
      "Ġquand": 591,
      "od": 592,
      "Ġtou": 593,
      "Ġcomp": 594,
      "Ġapp": 595,
      "Ġtemps": 596,
      "ĠJe": 597,
      "Ã©g": 598,
      "ise": 599,
      "ow": 600,
      "Ġdi": 601,
      "Ã©ri": 602,
      "vous": 603,
      "Ġcoup": 604,
      "Ġsem": 605,
      "Ġjam": 606,
      "Elle": 607,
      "Ġ:": 608,
      "Ġaussi": 609,
      "Ġhomme": 610,
      "Ġab": 611,
      "Ġsous": 612,
      "Ġeu": 613,
      "Ġtous": 614,
      "onsieur": 615,
      "ĠdÃ©s": 616,
      "oire": 617,
      "ich": 618,
      "bre": 619,
      "Ġrec": 620,
      "ants": 621,
      "eurs": 622,
      "rait": 623,
      "gn": 624,
      "ist": 625,
      "ole": 626,
      "Ġatt": 627,
      "ven": 628,
      "auv": 629,
      "Ġtoute": 630,
      "li": 631,
      "ĠÃ©p": 632,
      "Ġhad": 633,
      "ĠdÃ©c": 634,
      "Ġca": 635,
      "rÃ©": 636,
      "riv": 637,
      "Ġret": 638,
      "Ġentre": 639,
      "Ġfort": 640,
      "Ġcela": 641,
      "Ġmom": 642,
      "Ġvotre": 643,
      "Ġmoment": 644,
      "Ġai": 645,
      "oins": 646,
      "Ġfois": 647,
      "aÃ®": 648,
      "ett": 649,
      "Ġhim": 650,
      "ĠO": 651,
      "ĠÃªtre": 652,
      "ave": 653,
      "ĠÂ«": 654,
      "Ġvoy": 655,
      "Ġsou": 656,
      "Ġvie": 657,
      "Ġpos": 658,
      "ro": 659,
      "âĢ¦": 660,
      "Ġjamais": 661,
      "Ġpens": 662,
      "Ce": 663,
      "Ġfais": 664,
      "Ġparl": 665,
      "Ġfer": 666,
      "ĠrÃ©pondit": 667,
      "Ġsent": 668,
      "use": 669,
      "ect": 670,
      "ĠlÃł": 671,
      "Ġyeux": 672,
      "je": 673,
      "Ġrepr": 674,
      "ob": 675,
      "ex": 676,
      "Ġtrois": 677,
      "Ġfemme": 678,
      "ches": 679,
      "Ġvoi": 680,
      "min": 681,
      "are": 682,
      "Ġcap": 683,
      "ile": 684,
      "Ġbeau": 685,
      "iÃ¨": 686,
      "En": 687,
      "Ġport": 688,
      "Ġjour": 689,
      "Ġvoir": 690,
      "Ġcl": 691,
      "Ġmont": 692,
      "Ġpeut": 693,
      "omp": 694,
      "att": 695,
      "Ġvers": 696,
      "ĠÃ©taient": 697,
      "Ã©l": 698,
      "Ġtrav": 699,
      "Ġjusqu": 700,
      "iers": 701,
      "Ġpers": 702,
      "Ġprem": 703,
      "ale": 704,
      "rt": 705,
      "jours": 706,
      "Ġwith": 707,
      "ins": 708,
      "ate": 709,
      "asse": 710,
      "Ġeff": 711,
      "Ġsec": 712,
      "Ġquelques": 713,
      "Ġfit": 714,
      "Ġsuis": 715,
      "ly": 716,
      "Ġvis": 717,
      "Ġrest": 718,
      "uiv": 719,
      "Ġtoujours": 720,
      "oc": 721,
      "arg": 722,
      "Ġvoul": 723,
      "Ġder": 724,
      "ient": 725,
      "th": 726,
      "Ġtu": 727,
      "arr": 728,
      "sez": 729,
      "Ã¢t": 730,
      "Ġni": 731,
      "Les": 732,
      "Ġlaiss": 733,
      "Ġacc": 734,
      "Ġyou": 735,
      "Ġpetit": 736,
      "ĠaprÃ¨s": 737,
      "Ġco": 738,
      "Ġob": 739,
      "dre": 740,
      "ainsi": 741,
      "itu": 742,
      "âĢĶ": 743,
      "og": 744,
      "Ġad": 745,
      "Ġheur": 746,
      "Ġdou": 747,
      "Ġleurs": 748,
      "Ġjeune": 749,
      "ps": 750,
      "Ġavoir": 751,
      "ied": 752,
      "Ġmonsieur": 753,
      "ettre": 754,
      "ide": 755,
      "Ġainsi": 756,
      "Ġmoins": 757,
      "ress": 758,
      "urs": 759,
      "Ġcol": 760,
      "ame": 761,
      "Ġcri": 762,
      "Ġporte": 763,
      "Ġpe": 764,
      "Ġfl": 765,
      "ommes": 766,
      "illes": 767,
      "Ġbon": 768,
      "ell": 769,
      "rai": 770,
      "Ġtoutes": 771,
      "pt": 772,
      "Ġcor": 773,
      "Ġnouv": 774,
      "Ġnot": 775,
      "Ġcou": 776,
      "roit": 777,
      "autre": 778,
      "Ġheures": 779,
      "Ġsont": 780,
      "ulien": 781,
      "Ġwhich": 782,
      "Ġprof": 783,
      "Ġcham": 784,
      "port": 785,
      "Ġher": 786,
      "Ġautre": 787,
      "Ġaff": 788,
      "Ġfin": 789,
      "Ġalors": 790,
      "aille": 791,
      "ies": 792,
      "ente": 793,
      "On": 794,
      "Ġint": 795,
      "Ġis": 796,
      "nes": 797,
      "Art": 798,
      "ice": 799,
      "ĠdÃ©p": 800,
      "agnan": 801,
      "Ġchose": 802,
      "Ġnotre": 803,
      "Artagnan": 804,
      ".Â»": 805,
      "Ġsembl": 806,
      "Ġsort": 807,
      "Ġmer": 808,
      "ĠtÃªte": 809,
      "aur": 810,
      "ret": 811,
      "ents": 812,
      "Ġit": 813,
      "ĠtrÃ¨s": 814,
      "puis": 815,
      "Ġst": 816,
      "Ġcher": 817,
      "Ġconn": 818,
      "Ã©cri": 819,
      "ht": 820,
      "Ġarriv": 821,
      "Ġcet": 822,
      "Ġmin": 823,
      "Ã©tais": 824,
      "Ġbl": 825,
      "Ġbou": 826,
      "iqu": 827,
      "Ġmot": 828,
      "Ġdevant": 829,
      "Ãī": 830,
      "Ġten": 831,
      "Ġviv": 832,
      "Ġpouvait": 833,
      "Ġmat": 834,
      "ĠrÃ©s": 835,
      "Ġavaient": 836,
      "Ġmy": 837,
      "Ã©m": 838,
      "Ġsuiv": 839,
      "och": 840,
      "Ġchar": 841,
      "Ġpris": 842,
      "Ġaur": 843,
      "ĠIl": 844,
      "Ġso": 845,
      "ere": 846,
      "Ġsup": 847,
      "Ġpied": 848,
      "emb": 849,
      "ages": 850,
      "ud": 851,
      "Un": 852,
      "Ġheure": 853,
      "tenant": 854,
      "ets": 855,
      "Ġterre": 856,
      "Ġnon": 857,
      "...": 858,
      "Ġcontre": 859,
      "Ġlors": 860,
      "Ã§a": 861,
      "Ġenv": 862,
      "ues": 863,
      "Ġavant": 864,
      "avoir": 865,
      "abri": 866,
      "erv": 867,
      "ath": 868,
      "ĠdÃ©j": 869,
      "ĠmaÃ®": 870,
      "Ġpendant": 871,
      "oil": 872,
      "uite": 873,
      "Ġcontin": 874,
      "Ġple": 875,
      "Ġsal": 876,
      "ature": 877,
      "Ġpu": 878,
      "ould": 879,
      "iez": 880,
      "Ġchez": 881,
      "io": 882,
      "Ġsour": 883,
      "Ġtrop": 884,
      "Ġinst": 885,
      "ĠCh": 886,
      "Ġcapit": 887,
      "tant": 888,
      "aque": 889,
      "Ġemp": 890,
      "Ġsoir": 891,
      "ĠprÃ©s": 892,
      "rit": 893,
      "Ġchev": 894,
      "iment": 895,
      "ran": 896,
      "Ġfaut": 897,
      "atre": 898,
      "Ġnuit": 899,
      "Ġserv": 900,
      "Ġtomb": 901,
      "sible": 902,
      "Ġass": 903,
      "pendant": 904,
      "Ġgrande": 905,
      "Ġvoix": 906,
      "Ã§on": 907,
      "Ġsol": 908,
      "fin": 909,
      "Ġcert": 910,
      "irent": 911,
      "ĠcÃ´t": 912,
      "Ġcond": 913,
      "ations": 914,
      "Ġag": 915,
      "Ġcompr": 916,
      "ĠJulien": 917,
      "Ġconv": 918,
      "ouss": 919,
      "ĠdÃ©t": 920,
      "Ġmonde": 921,
      "itt": 922,
      "ĠeÃ»t": 923,
      "Ġrev": 924,
      "tement": 925,
      "Ġsais": 926,
      "Ġnom": 927,
      "Ãªtes": 928,
      "iÃ©": 929,
      "Ġver": 930,
      "ĠPar": 931,
      "ition": 932,
      "orm": 933,
      "Ġhave": 934,
      "act": 935,
      "Ġassez": 936,
      "este": 937,
      "Ġsp": 938,
      "Ġdepuis": 939,
      "ke": 940,
      "Ġshe": 941,
      "Ġgar": 942,
      "Ġjours": 943,
      "ienne": 944,
      "urent": 945,
      "Ġcapitaine": 946,
      "Ġtant": 947,
      "Ã©ch": 948,
      "Ġpres": 949,
      "Ġouv": 950,
      "eus": 951,
      "Ġinc": 952,
      "ici": 953,
      "ner": 954,
      "The": 955,
      "Ġjet": 956,
      "uer": 957,
      "Ġsh": 958,
      "heure": 959,
      "lev": 960,
      "tem": 961,
      "ĠprÃ¨s": 962,
      "aill": 963,
      "oug": 964,
      "Ġvol": 965,
      "ables": 966,
      "Ġauc": 967,
      "'s": 968,
      "inc": 969,
      "ÃĢ": 970,
      "Ġhab": 971,
      "mer": 972,
      "Ġmort": 973,
      "anger": 974,
      "ive": 975,
      "Ã©cria": 976,
      "Ġmaison": 977,
      "Ġthis": 978,
      "Ġdern": 979,
      "imp": 980,
      "aud": 981,
      "Ġautres": 982,
      "Ġby": 983,
      "Ġcin": 984,
      "uss": 985,
      "Ġgl": 986,
      "zio": 987,
      "ĠMr": 988,
      "Ġsouv": 989,
      "ade": 990,
      "abrizio": 991,
      "Ġchambre": 992,
      "aid": 993,
      "ĠEt": 994,
      "Ġmis": 995,
      "Ġpay": 996,
      "ures": 997,
      "ombre": 998,
      "ib": 999,
      "Ġor": 1000,
      "Ġconf": 1001,
      "Ġserait": 1002,
      "Ġseul": 1003,
      "Ġquatre": 1004,
      "Ġind": 1005,
      "oign": 1006,
      "Åĵ": 1007,
      "Nous": 1008,
      "Ġhaut": 1009,
      "ĠprÃ©": 1010,
      "Ġbout": 1011,
      "iens": 1012,
      "ix": 1013,
      "cle": 1014,
      "Ġfaisait": 1015,
      "rer": 1016,
      "gl": 1017,
      "Ġfille": 1018,
      "ĠMais": 1019,
      "Ġentend": 1020,
      "fois": 1021,
      "Ġmaintenant": 1022,
      "ĠâĢĵ": 1023,
      "Ġquoi": 1024,
      "Ġcent": 1025,
      "Ġrais": 1026,
      "mÃªme": 1027,
      "quel": 1028,
      "Ġins": 1029,
      "ip": 1030,
      "Ġcan": 1031,
      "Ġ--": 1032,
      "Ġfeu": 1033,
      "Ġtravers": 1034,
      "par": 1035,
      "Ġprom": 1036,
      "Ġes": 1037,
      "Ġfond": 1038,
      "Ġbras": 1039,
      "ĠprÃ©c": 1040,
      "ĠcÃ´tÃ©": 1041,
      "tes": 1042,
      "Ġdoute": 1043,
      "aires": 1044,
      "ĠMme": 1045,
      "Ġno": 1046,
      "Ġeut": 1047,
      "Ġdemanda": 1048,
      "Ġfou": 1049,
      ".\"": 1050,
      "Ġpeine": 1051,
      "Ġliv": 1052,
      "Ġreconn": 1053,
      "Ġmil": 1054,
      "yr": 1055,
      "Ġavez": 1056,
      "Ġmatin": 1057,
      "ze": 1058,
      "Ġrapp": 1059,
      "ah": 1060,
      "Ġoff": 1061,
      "avez": 1062,
      "Ġcontinu": 1063,
      "Ġsc": 1064,
      "Ġappr": 1065,
      "Ġparler": 1066,
      "ingt": 1067,
      "Ġmille": 1068,
      "omm": 1069,
      "elf": 1070,
      "Ġmur": 1071,
      "Ġmari": 1072,
      "Ġgo": 1073,
      "Vous": 1074,
      "Al": 1075,
      "Ġph": 1076,
      "Ġplace": 1077,
      "issait": 1078,
      "ach": 1079,
      "lez": 1080,
      "enait": 1081,
      "Ġpetite": 1082,
      "Ġlieu": 1083,
      "Ġprendre": 1084,
      "Ġpauv": 1085,
      "lÃł": 1086,
      "Ġfall": 1087,
      "Ġhommes": 1088,
      "appr": 1089,
      "Ġ_": 1090,
      "Ġvit": 1091,
      "Une": 1092,
      "ardin": 1093,
      "ĠLa": 1094,
      "Ġsouff": 1095,
      "Ã©ment": 1096,
      "Ġbut": 1097,
      ",\"": 1098,
      "Ġrend": 1099,
      "nd": 1100,
      "Ġcal": 1101,
      "acc": 1102,
      "coup": 1103,
      "Ġsil": 1104,
      "ouver": 1105,
      "Ġref": 1106,
      "Ġcertain": 1107,
      "Au": 1108,
      "Ã®le": 1109,
      "arb": 1110,
      "Ġdesc": 1111,
      "aise": 1112,
      "oilÃł": 1113,
      "riÃ¨re": 1114,
      "Ġbas": 1115,
      "Ġgros": 1116,
      "Ġnos": 1117,
      "oses": 1118,
      "ĠDieu": 1119,
      "ĠÃ©v": 1120,
      "Ġ\"": 1121,
      "ĠmaÃ®tre": 1122,
      "Ġmains": 1123,
      "Ġvrai": 1124,
      "dess": 1125,
      "Ġbonne": 1126,
      "encro": 1127,
      "Ġpersonne": 1128,
      "encroff": 1129,
      "ĠW": 1130,
      "oid": 1131,
      "Ġfrom": 1132,
      "Ġmieux": 1133,
      "Ġdevait": 1134,
      "ĠQu": 1135,
      "Ġperd": 1136,
      "Ġmilieu": 1137,
      "ma": 1138,
      "Ġren": 1139,
      "ourd": 1140,
      "aÃ®tre": 1141,
      "Ġfig": 1142,
      "ĠFabrizio": 1143,
      "Ġdiff": 1144,
      "rez": 1145,
      "ĠdÃ©jÃł": 1146,
      "Ġtour": 1147,
      "Ġlev": 1148,
      "Ġans": 1149,
      "Ġenfin": 1150,
      "ug": 1151,
      "Ġte": 1152,
      "Ġbes": 1153,
      "Ġdisait": 1154,
      "Ġcrois": 1155,
      "Ġnature": 1156,
      "prit": 1157,
      "ult": 1158,
      "Ġreprit": 1159,
      "Ġesp": 1160,
      "Ġfam": 1161,
      "erait": 1162,
      "ust": 1163,
      "yrus": 1164,
      "onse": 1165,
      "Ġvenait": 1166,
      "ces": 1167,
      "Ġimp": 1168,
      "enir": 1169,
      "ĠOui": 1170,
      "Ils": 1171,
      "Ġpieds": 1172,
      "Ġcompagn": 1173,
      "ements": 1174,
      "eth": 1175,
      "homme": 1176,
      "Ġcelui": 1177,
      "fait": 1178,
      "Ġmad": 1179,
      "Ġocc": 1180,
      "Ġplais": 1181,
      "igne": 1182,
      "Ġbeaucoup": 1183,
      "Ġord": 1184,
      "Ġseulement": 1185,
      "ince": 1186,
      "Ġdist": 1187,
      "Ġvu": 1188,
      "Ġhas": 1189,
      "itude": 1190,
      "Ġnouveau": 1191,
      "Ġtourn": 1192,
      "aint": 1193,
      "esse": 1194,
      "iel": 1195,
      "Ġchaque": 1196,
      "Ġeffet": 1197,
      "Ġjou": 1198,
      "Ġwho": 1199,
      "uch": 1200,
      "Ġvou": 1201,
      "quoi": 1202,
      "antes": 1203,
      "onde": 1204,
      "ĠVous": 1205,
      "Ġallait": 1206,
      "Ġchemin": 1207,
      "ĠvÃ©r": 1208,
      "Ġfus": 1209,
      "thos": 1210,
      "temps": 1211,
      "Puis": 1212,
      "ĠfÃ»t": 1213,
      "Ã©taient": 1214,
      "Ġchoses": 1215,
      "Ġair": 1216,
      "Ġcomment": 1217,
      "ĠÃ©cl": 1218,
      "Ġrep": 1219,
      "Ġloin": 1220,
      "ight": 1221,
      "!Â»": 1222,
      "Ġlar": 1223,
      "Ġfa": 1224,
      "Ġpo": 1225,
      "De": 1226,
      "Ġinstant": 1227,
      "iste": 1228,
      "chÃ©": 1229,
      "Ġdonner": 1230,
      "ientÃ´t": 1231,
      "Ġsoit": 1232,
      "ines": 1233,
      "Ġgens": 1234,
      "rir": 1235,
      "Ġcam": 1236,
      "jet": 1237,
      "Ġobs": 1238,
      "Ġeux": 1239,
      "Ġimm": 1240,
      "Ġreven": 1241,
      "Ġcinq": 1242,
      "moi": 1243,
      "Ġcas": 1244,
      "ĠSm": 1245,
      "Ġsoup": 1246,
      "avant": 1247,
      "erÃ§": 1248,
      "ĠPr": 1249,
      "idÃ©e": 1250,
      "ense": 1251,
      "rais": 1252,
      "Ġvent": 1253,
      "ime": 1254,
      "ĠPencroff": 1255,
      "Ġsemblait": 1256,
      "Ã©v": 1257,
      "ĠÃ©ch": 1258,
      "Ġdix": 1259,
      "quet": 1260,
      "Ġroute": 1261,
      "ĠpÃ¨re": 1262,
      "ĠdÃ©b": 1263,
      "euse": 1264,
      "ĠÃªtes": 1265,
      "ĠSmith": 1266,
      "Ġexc": 1267,
      "oie": 1268,
      "uy": 1269,
      "Ġdo": 1270,
      "Ġvingt": 1271,
      "Ġami": 1272,
      "Ġk": 1273,
      "abord": 1274,
      "arqu": 1275,
      "fl": 1276,
      "essa": 1277,
      "Ġpouss": 1278,
      "Ġquest": 1279,
      "Ġpauvre": 1280,
      "Ġici": 1281,
      "Ġdroit": 1282,
      "iter": 1283,
      "Ġbois": 1284,
      "Ġaut": 1285,
      "iÃ¨res": 1286,
      "cev": 1287,
      "ady": 1288,
      "Ġprop": 1289,
      "Ġhum": 1290,
      "Ġbruit": 1291,
      "ĠGr": 1292,
      "Ġbord": 1293,
      "ange": 1294,
      "Ġseule": 1295,
      "ane": 1296,
      "Ġrou": 1297,
      "Ġpresque": 1298,
      "Ġpremier": 1299,
      "Ġsaid": 1300,
      "ĠdÃ©f": 1301,
      "iques": 1302,
      "onte": 1303,
      "heur": 1304,
      "anqu": 1305,
      "Ġroi": 1306,
      "Ġcompl": 1307,
      "ĠmÃ¨re": 1308,
      "Ã§ait": 1309,
      "Ġoncle": 1310,
      "Ġaurait": 1311,
      "Ã¨v": 1312,
      "Ġcoeur": 1313,
      "Ġelles": 1314,
      "jout": 1315,
      "Ġvois": 1316,
      "Ġexp": 1317,
      "Ġann": 1318,
      "ĠLe": 1319,
      "Ġpartie": 1320,
      "Ġsix": 1321,
      "Ġmois": 1322,
      "Cette": 1323,
      "ances": 1324,
      "ction": 1325,
      "Ġvi": 1326,
      "Ġgen": 1327,
      "Ġlo": 1328,
      "dessus": 1329,
      "Ġreste": 1330,
      "Ġinter": 1331,
      "Ġtable": 1332,
      "ention": 1333,
      "Ġgard": 1334,
      "ĠÃ©l": 1335,
      "arc": 1336,
      "Ġlaqu": 1337,
      "Ġpasser": 1338,
      "Ġtrouver": 1339,
      "ande": 1340,
      "Ġcelle": 1341,
      "Ġgu": 1342,
      "Ġdemi": 1343,
      "endait": 1344,
      "anch": 1345,
      "ĠprÃ©sent": 1346,
      "Ġont": 1347,
      "Ġ1": 1348,
      "Ġpays": 1349,
      "Ã¢mes": 1350,
      "Ġlettre": 1351,
      "Ã¨res": 1352,
      "ots": 1353,
      "Ġgre": 1354,
      "aisse": 1355,
      "Ġsang": 1356,
      "ost": 1357,
      "ĠAr": 1358,
      "Ġens": 1359,
      "aissait": 1360,
      "self": 1361,
      "one": 1362,
      "enn": 1363,
      "Ġsorte": 1364,
      "Ġmit": 1365,
      "Ġvos": 1366,
      "Ġcontr": 1367,
      "Alors": 1368,
      "Ġlorsque": 1369,
      "ellement": 1370,
      "irait": 1371,
      "andis": 1372,
      "Ġrenc": 1373,
      "Ġface": 1374,
      "ĠCyrus": 1375,
      "irer": 1376,
      "ailleurs": 1377,
      "ĠParis": 1378,
      "enf": 1379,
      "ĠbientÃ´t": 1380,
      "ĠMar": 1381,
      "Tout": 1382,
      "Ġemb": 1383,
      "erie": 1384,
      "Ġwould": 1385,
      "Ġone": 1386,
      "ige": 1387,
      "Ġrent": 1388,
      "Si": 1389,
      "uc": 1390,
      "ument": 1391,
      "ĠpremiÃ¨re": 1392,
      "Ġnoir": 1393,
      "ats": 1394,
      "Ġfigure": 1395,
      "Ġta": 1396,
      "eut": 1397,
      "Quand": 1398,
      "Ġprofond": 1399,
      "Ġup": 1400,
      "leur": 1401,
      "oles": 1402,
      "ĠÃī": 1403,
      "Ġpol": 1404,
      "Ġop": 1405,
      "Ġretr": 1406,
      "Ġmen": 1407,
      "Ġprit": 1408,
      "Ġsurpr": 1409,
      "ĠrÃ©c": 1410,
      "Ġabs": 1411,
      "Ġfen": 1412,
      "Ġrap": 1413,
      "ict": 1414,
      "Que": 1415,
      "Ġli": 1416,
      "Pour": 1417,
      "Ġriv": 1418,
      "Ã©qu": 1419,
      "ela": 1420,
      "Ġresp": 1421,
      "Ġbar": 1422,
      "ted": 1423,
      "Ġaller": 1424,
      "ĠMil": 1425,
      "Ġfurent": 1426,
      "Ġwill": 1427,
      "Ġperm": 1428,
      "Ġdom": 1429,
      "Ġextr": 1430,
      "Ġlongtemps": 1431,
      "Ġcommen": 1432,
      "ok": 1433,
      "Ġajout": 1434,
      "ĠÃ©g": 1435,
      "veill": 1436,
      "Ġtard": 1437,
      "chait": 1438,
      "Ġraison": 1439,
      "Ġvue": 1440,
      "di": 1441,
      "Ġbelle": 1442,
      "Ġcroy": 1443,
      "ĠdÃ©l": 1444,
      "Ġmoy": 1445,
      "Ġvieux": 1446,
      "Ġfallait": 1447,
      "Ġmor": 1448,
      "oll": 1449,
      "Ġautour": 1450,
      "mÃ©": 1451,
      "liz": 1452,
      "ome": 1453,
      "ĠdÃ©v": 1454,
      "Ġtranqu": 1455,
      "ĠAthos": 1456,
      "Ġsilence": 1457,
      "ĠChar": 1458,
      "ible": 1459,
      "ras": 1460,
      "Ġretourn": 1461,
      "aff": 1462,
      "Ġbesoin": 1463,
      "ĠÃ¢": 1464,
      "ume": 1465,
      "ieurs": 1466,
      "ancs": 1467,
      "Ġton": 1468,
      "Ġbal": 1469,
      "agne": 1470,
      "anche": 1471,
      "chant": 1472,
      "Ã´te": 1473,
      "Ġvoit": 1474,
      "Ġaucun": 1475,
      "Ġro": 1476,
      "....": 1477,
      "gr": 1478,
      "rÃ©e": 1479,
      "ule": 1480,
      "emain": 1481,
      "Ãªn": 1482,
      "Ġsera": 1483,
      "Ġcependant": 1484,
      "Ġarr": 1485,
      "Ġrel": 1486,
      "ira": 1487,
      "ĠgÃ©n": 1488,
      "Ã©par": 1489,
      "iz": 1490,
      "rible": 1491,
      "orth": 1492,
      "Ġjourn": 1493,
      "abeth": 1494,
      "Cependant": 1495,
      "Th": 1496,
      "Ġput": 1497,
      "Ġgal": 1498,
      "Ġress": 1499,
      "Ġcomb": 1500,
      "Ġwere": 1501,
      "Ġgrands": 1502,
      "tÃ©": 1503,
      "Ġfe": 1504,
      "ĠEh": 1505,
      "Ġlit": 1506,
      "Ġinf": 1507,
      "Ġquestion": 1508,
      "Ġsimp": 1509,
      "reux": 1510,
      "Ġhor": 1511,
      "Ġprod": 1512,
      "cl": 1513,
      "Ġram": 1514,
      "ains": 1515,
      "Ġceux": 1516,
      "lizabeth": 1517,
      "tu": 1518,
      "Ġend": 1519,
      "Ġcur": 1520,
      "Ġsign": 1521,
      "ident": 1522,
      "Ġbeen": 1523,
      "Ġlaquelle": 1524,
      "Ġout": 1525,
      "Ġinv": 1526,
      "arbert": 1527,
      "Ġmadame": 1528,
      "Ġva": 1529,
      "Ġenfant": 1530,
      "Ġpossible": 1531,
      "Ġforce": 1532,
      "ĠFr": 1533,
      "grÃ©": 1534,
      "Ġac": 1535,
      "ience": 1536,
      "ilus": 1537,
      "oth": 1538,
      "ouse": 1539,
      "onner": 1540,
      "ache": 1541,
      "Ġamis": 1542,
      "Ġfai": 1543,
      "Ġfac": 1544,
      "oss": 1545,
      "autilus": 1546,
      "ger": 1547,
      "Ġnav": 1548,
      "Ġfroid": 1549,
      "Ġtrou": 1550,
      "Ġtandis": 1551,
      "cept": 1552,
      "Ġmanqu": 1553,
      "bres": 1554,
      "ind": 1555,
      "pe": 1556,
      "Ġtrans": 1557,
      "abl": 1558,
      "ĠvoilÃł": 1559,
      "ĠDuch": 1560,
      "Ġcheval": 1561,
      "Ġsavoir": 1562,
      "Ġsub": 1563,
      "ĠNon": 1564,
      "ĠDuchessa": 1565,
      "aqu": 1566,
      "mait": 1567,
      "Ġcorps": 1568,
      "Ġsuff": 1569,
      "itÃ´t": 1570,
      "Ġgent": 1571,
      "utes": 1572,
      "king": 1573,
      "Ġlorsqu": 1574,
      "Ġvenir": 1575,
      "Ġtrouvait": 1576,
      "Ġsole": 1577,
      "itÃ©s": 1578,
      "Ġchercher": 1579,
      "Ġquelle": 1580,
      "Ġred": 1581,
      "Ġsee": 1582,
      "Ġdispar": 1583,
      "ast": 1584,
      "ĠlÃ©g": 1585,
      "ĠsÃ»": 1586,
      "Ġconsid": 1587,
      "ĠEn": 1588,
      "Ġlum": 1589,
      "Ġmettre": 1590,
      "Ġbour": 1591,
      "Ġsouvent": 1592,
      "Ġcardin": 1593,
      "endemain": 1594,
      "ablement": 1595,
      "Ġaucune": 1596,
      "aign": 1597,
      "oux": 1598,
      "Ġfat": 1599,
      "ĠpÃ¢": 1600,
      "Ġhabit": 1601,
      "aute": 1602,
      "Ã©nieur": 1603,
      "idi": 1604,
      "Ġcaus": 1605,
      "Ġthey": 1606,
      "ĠRÃªn": 1607,
      "Ġcardinal": 1608,
      "ĠRÃªnal": 1609,
      "Ġhimself": 1610,
      "aurais": 1611,
      "ph": 1612,
      "Ġcouv": 1613,
      "ierre": 1614,
      "argent": 1615,
      "esc": 1616,
      "Ġay": 1617,
      "Ã©tÃ©": 1618,
      "Ġfrapp": 1619,
      "ogg": 1620,
      "Ġdisc": 1621,
      "iere": 1622,
      "els": 1623,
      "ĠfaÃ§on": 1624,
      "ris": 1625,
      "Ġexpl": 1626,
      "Ġplusieurs": 1627,
      "Nautilus": 1628,
      "Ġvisage": 1629,
      "Ġlendemain": 1630,
      "ingÃ©nieur": 1631,
      "Ġplaisir": 1632,
      "Ġfamille": 1633,
      "ĠTh": 1634,
      "Åĵur": 1635,
      "Ġlaisser": 1636,
      "bles": 1637,
      "ern": 1638,
      "ends": 1639,
      "Ġfemmes": 1640,
      "ĠpensÃ©e": 1641,
      "alement": 1642,
      "la": 1643,
      "Ġmauv": 1644,
      "Ġtrem": 1645,
      "avaient": 1646,
      "Ġquitt": 1647,
      "enez": 1648,
      "Ġjeunes": 1649,
      "Ġenfants": 1650,
      "ather": 1651,
      "oh": 1652,
      "erc": 1653,
      "ester": 1654,
      "resse": 1655,
      "ĠSaint": 1656,
      "rant": 1657,
      "Ġparce": 1658,
      "autres": 1659,
      "Ġlitt": 1660,
      "Ġpourtant": 1661,
      "Ġminutes": 1662,
      "eff": 1663,
      "ss": 1664,
      "arde": 1665,
      "ĠgarÃ§on": 1666,
      "Ġappar": 1667,
      "Ġvoyait": 1668,
      "Ġmots": 1669,
      "Ġsoleil": 1670,
      "uire": 1671,
      "iend": 1672,
      "Ġimpos": 1673,
      "Ġdess": 1674,
      "ĠderriÃ¨re": 1675,
      "porter": 1676,
      "ĠAl": 1677,
      "Ġrac": 1678,
      "Ã©rieur": 1679,
      "He": 1680,
      "Ġvoulait": 1681,
      "ov": 1682,
      "Ġve": 1683,
      "Ġever": 1684,
      "Ġpropos": 1685,
      "Ġlet": 1686,
      "Ã©on": 1687,
      "Ġpat": 1688,
      "Ġsens": 1689,
      "Ġtri": 1690,
      "Mon": 1691,
      "Ġrendre": 1692,
      "ĠBon": 1693,
      "Ġprov": 1694,
      "orthos": 1695,
      "ieuse": 1696,
      "Ġviol": 1697,
      "hab": 1698,
      "Ġpen": 1699,
      "ener": 1700,
      "Ġciel": 1701,
      "Ġveux": 1702,
      "Ġadm": 1703,
      "Ġdiffic": 1704,
      "iant": 1705,
      "raient": 1706,
      "uv": 1707,
      "Ġoccup": 1708,
      "RE": 1709,
      "agin": 1710,
      "ĠAh": 1711,
      "ression": 1712,
      "Ġquit": 1713,
      "Ġsat": 1714,
      "Ġthem": 1715,
      "Ġtrait": 1716,
      "Ah": 1717,
      "Ġess": 1718,
      "Ġmoyen": 1719,
      "Ġmous": 1720,
      "occ": 1721,
      "Ġfils": 1722,
      "Ġfix": 1723,
      "oix": 1724,
      "ĠÃ§a": 1725,
      "Ġhuit": 1726,
      "Ġpourquoi": 1727,
      "II": 1728,
      "ĠpassÃ©": 1729,
      "amis": 1730,
      "qui": 1731,
      "ettes": 1732,
      "Ġsentiment": 1733,
      "approch": 1734,
      "Ġir": 1735,
      "Ġsommes": 1736,
      "Ġru": 1737,
      "Ġwe": 1738,
      "tout": 1739,
      "Ġmeme": 1740,
      "Ġdir": 1741,
      "oyer": 1742,
      "Ġsalle": 1743,
      "eÃ»t": 1744,
      "Ġday": 1745,
      "ura": 1746,
      "Ġpap": 1747,
      "Ã®n": 1748,
      "Ġsuite": 1749,
      "endu": 1750,
      "endit": 1751,
      "onneur": 1752,
      "arrÃªt": 1753,
      "Ġlivres": 1754,
      "ĠMilady": 1755,
      "Ġvint": 1756,
      "Ġconvers": 1757,
      "ĠreÃ§": 1758,
      "icul": 1759,
      "cteur": 1760,
      "Ġremarqu": 1761,
      "Ġdernier": 1762,
      "Ġcontinua": 1763,
      "Dans": 1764,
      "Ġbat": 1765,
      "Ġpersonn": 1766,
      "Ġpeur": 1767,
      "Ġpare": 1768,
      "aines": 1769,
      "Ġcir": 1770,
      "Ġmour": 1771,
      "Ġmouv": 1772,
      "issant": 1773,
      "Ġcourt": 1774,
      "ouill": 1775,
      "Ã©cess": 1776,
      "ott": 1777,
      "ards": 1778,
      "Ġsauv": 1779,
      "ales": 1780,
      "Ġdispos": 1781,
      "Ġoubl": 1782,
      "Ġnouvelle": 1783,
      "oqu": 1784,
      "Ġ(": 1785,
      "ĠFogg": 1786,
      "ĠdÃ©sir": 1787,
      "lin": 1788,
      "Ġsomme": 1789,
      "Ġparoles": 1790,
      "Ġwhen": 1791,
      "Ã¨ne": 1792,
      "Ġpouvais": 1793,
      "Ġtranquille": 1794,
      "Ġdr": 1795,
      "aie": 1796,
      "era": 1797,
      "Ġarri": 1798,
      "ĠrÃ©sol": 1799,
      "Ġval": 1800,
      "ĠNem": 1801,
      "Quel": 1802,
      "ĠdÃ©couv": 1803,
      "Ġus": 1804,
      "Ġtoi": 1805,
      "Ã¢ce": 1806,
      "ĠdonnÃ©": 1807,
      "ĠdÃ©cid": 1808,
      "ades": 1809,
      "Ġpartir": 1810,
      "Ġesprit": 1811,
      "ĠNemo": 1812,
      "Ġthere": 1813,
      "mÃ©e": 1814,
      "enant": 1815,
      "ĠnÃ©cess": 1816,
      "urer": 1817,
      "Ġregardait": 1818,
      "ĠPrince": 1819,
      "ĠpÃ©n": 1820,
      "ilett": 1821,
      "less": 1822,
      "Ã¢te": 1823,
      "eter": 1824,
      "euf": 1825,
      "ĠJane": 1826,
      "inaire": 1827,
      "Ġville": 1828,
      "Ġrue": 1829,
      "aÃ®t": 1830,
      "ton": 1831,
      "vent": 1832,
      "Ġsing": 1833,
      "Ġcents": 1834,
      "alitÃ©": 1835,
      "ĠRoch": 1836,
      "Ġtw": 1837,
      "Ġbri": 1838,
      "Ã¨se": 1839,
      "ĠMonsieur": 1840,
      "Ġajouta": 1841,
      "ham": 1842,
      "cha": 1843,
      "ĠHarbert": 1844,
      "Ġdemander": 1845,
      "Ġvoyage": 1846,
      "arguer": 1847,
      "ber": 1848,
      "iles": 1849,
      "Ġanim": 1850,
      "Ġlequel": 1851,
      "Ġentra": 1852,
      "ĠfrÃ¨re": 1853,
      "Ġautant": 1854,
      "ĠOh": 1855,
      "Ġbonheur": 1856,
      "off": 1857,
      "iÃ¨me": 1858,
      "Ġsau": 1859,
      "ars": 1860,
      "omment": 1861,
      "ngl": 1862,
      "Ġare": 1863,
      "Ġplut": 1864,
      "Ġsurtout": 1865,
      "ignor": 1866,
      "arguerite": 1867,
      "ĠPh": 1868,
      "Ġany": 1869,
      "Ġconnaiss": 1870,
      "Ġdiv": 1871,
      "Ġproc": 1872,
      "Ġcru": 1873,
      "range": 1874,
      "Ġsucc": 1875,
      "Ġvas": 1876,
      "orme": 1877,
      "Ch": 1878,
      "Ã¯": 1879,
      "inter": 1880,
      "Ġparfait": 1881,
      "Ġchap": 1882,
      "emment": 1883,
      "Ġgagn": 1884,
      "ĠConte": 1885,
      "ĠmaÃ®tres": 1886,
      "ley": 1887,
      "Ġjoie": 1888,
      "Oui": 1889,
      "usement": 1890,
      "ĠPorthos": 1891,
      "Ġpetits": 1892,
      "ĠCe": 1893,
      "Eh": 1894,
      "Ġparut": 1895,
      "Ġcab": 1896,
      "red": 1897,
      "emble": 1898,
      "ĠCharles": 1899,
      "Ġcirc": 1900,
      "ia": 1901,
      "Ġmurm": 1902,
      "ĠcÃ´te": 1903,
      "Ġayant": 1904,
      "part": 1905,
      "Ġpal": 1906,
      "onnÃ©": 1907,
      "ete": 1908,
      "orge": 1909,
      "ĠrÃª": 1910,
      "ateau": 1911,
      "Ġrapid": 1912,
      "be": 1913,
      "Ġnombre": 1914,
      "Ġsitu": 1915,
      "Ġtenait": 1916,
      "Ġenvir": 1917,
      "Pendant": 1918,
      "ses": 1919,
      "Ġtromp": 1920,
      "Ġtrouva": 1921,
      "tienne": 1922,
      "Ġparole": 1923,
      "Ġcrain": 1924,
      "ĠrÃ©g": 1925,
      "Ġcoups": 1926,
      "rÃ¨s": 1927,
      "Ġcause": 1928,
      "ompagn": 1929,
      "Ġcroire": 1930,
      "mi": 1931,
      "Ġobl": 1932,
      "Ġmarin": 1933,
      "ĠvÃ©ritÃ©": 1934,
      "Ġavons": 1935,
      "Ġyour": 1936,
      "Ġfrancs": 1937,
      "ĠmaniÃ¨re": 1938,
      "Ġcompagnons": 1939,
      "sitÃ´t": 1940,
      "Ġvais": 1941,
      "ĠaussitÃ´t": 1942,
      "Ġconversation": 1943,
      "Ġcompte": 1944,
      "Ġafin": 1945,
      "ussi": 1946,
      "ĠLond": 1947,
      "asser": 1948,
      "Ġsecond": 1949,
      "onge": 1950,
      "ution": 1951,
      "Enfin": 1952,
      "ilitÃ©": 1953,
      "Ġsac": 1954,
      "ity": 1955,
      "ĠSp": 1956,
      "Ġentendu": 1957,
      "ville": 1958,
      "Ġsavait": 1959,
      "Ġmore": 1960,
      "ĠmÃ©d": 1961,
      "Ġvieille": 1962,
      "onseil": 1963,
      "hor": 1964,
      "Ġdoi": 1965,
      "env": 1966,
      "oindre": 1967,
      "Ġfortune": 1968,
      "ĠbÃ¢t": 1969,
      "Ġcamp": 1970,
      "Ã¨vres": 1971,
      "Ġpress": 1972,
      "Ġplac": 1973,
      "Ã®ner": 1974,
      "hui": 1975,
      "vre": 1976,
      "rim": 1977,
      "Ġentendre": 1978,
      "arcy": 1979,
      "Ġtelle": 1980,
      "etre": 1981,
      "amour": 1982,
      "Ġmarqu": 1983,
      "own": 1984,
      "Ġvert": 1985,
      "Ġimpossible": 1986,
      "Ġdur": 1987,
      "anÃ§": 1988,
      "embl": 1989,
      "iÃ¨rement": 1990,
      "Ġcommenc": 1991,
      "olie": 1992,
      "Ġjust": 1993,
      "ĠplutÃ´t": 1994,
      "Ġmanger": 1995,
      "Ġrire": 1996,
      "amb": 1997,
      "ĠgÃ©nÃ©r": 1998,
      "ak": 1999,
      "eaux": 2000,
      "ish": 2001,
      "fter": 2002,
      "Ġfour": 2003,
      "Ġeaux": 2004,
      "bes": 2005,
      "Ġvoiture": 2006,
      "ĠconsidÃ©r": 2007,
      "ĠmÃª": 2008,
      "ĠfenÃªtre": 2009,
      "ack": 2010,
      "aller": 2011,
      "ĠLondres": 2012,
      "Ã®mes": 2013,
      "Ġlib": 2014,
      "ises": 2015,
      "ĠÃ©tions": 2016,
      "Ġplein": 2017,
      "Ġoui": 2018,
      "ĠlumiÃ¨re": 2019,
      "Ġterrible": 2020,
      "Ġrecomm": 2021,
      "Ġgarde": 2022,
      "Ġbatt": 2023,
      "Ġgreat": 2024,
      "ĠidÃ©e": 2025,
      "Ġcre": 2026,
      "Ġlittle": 2027,
      "ute": 2028,
      "Ġlongue": 2029,
      "Par": 2030,
      "Ġsoul": 2031,
      "ĠprÃªt": 2032,
      "issement": 2033,
      "Ġpouvoir": 2034,
      "Ġmalheure": 2035,
      "Ġsatis": 2036,
      "az": 2037,
      "ĠMarguerite": 2038,
      "Ġvoulu": 2039,
      "Ġtent": 2040,
      "Ġpuiss": 2041,
      "ĠmalgrÃ©": 2042,
      "Ġrefus": 2043,
      "Ġpre": 2044,
      "asion": 2045,
      "opp": 2046,
      "Ġcolons": 2047,
      "iait": 2048,
      "Ġlut": 2049,
      "lice": 2050,
      "Ġlarge": 2051,
      "ĠsÃ©ri": 2052,
      "ĠcÅĵur": 2053,
      "cevoir": 2054,
      "Sa": 2055,
      "pect": 2056,
      "ese": 2057,
      "Ġform": 2058,
      "Ã©an": 2059,
      "ĠSir": 2060,
      "Ġappel": 2061,
      "ĠRochester": 2062,
      "rouv": 2063,
      "ĠpiÃ¨": 2064,
      "Ġfav": 2065,
      "ager": 2066,
      "ĠSpilett": 2067,
      "Non": 2068,
      "Ġchac": 2069,
      "ĠdÃ©g": 2070,
      "Ġconven": 2071,
      "ough": 2072,
      "Ġrencont": 2073,
      "ary": 2074,
      "Ã©rÃ¨se": 2075,
      "Ġcoll": 2076,
      "Ġprofess": 2077,
      "action": 2078,
      "jourd": 2079,
      "Ġcalme": 2080,
      "ĠvÃ©rit": 2081,
      "Ġrouge": 2082,
      "rÃ©s": 2083,
      "Ġsome": 2084,
      "Ġquin": 2085,
      "ĠdÃ©sesp": 2086,
      "Ġsouvenir": 2087,
      "Ġracont": 2088,
      "der": 2089,
      "Ġact": 2090,
      "iller": 2091,
      "Ġsavez": 2092,
      "Ġrempl": 2093,
      "Ġtenir": 2094,
      "aheu": 2095,
      "Ġmontre": 2096,
      "Ġregarda": 2097,
      "ry": 2098,
      "Ġnu": 2099,
      "Ġsonge": 2100,
      "tenir": 2101,
      "Ġevery": 2102,
      "bÃ©": 2103,
      "Ġtir": 2104,
      "acieux": 2105,
      "Ġpassion": 2106,
      "Ġretour": 2107,
      "Ġvoulez": 2108,
      "Comme": 2109,
      "ĠdÃ¨s": 2110,
      "Ġhors": 2111,
      "Ġpourrait": 2112,
      "amin": 2113,
      "otte": 2114,
      "Ġaffaire": 2115,
      "Ġcharm": 2116,
      "ĠÃ©tr": 2117,
      "Ġinto": 2118,
      "Son": 2119,
      "nous": 2120,
      "Ġdemeur": 2121,
      "aime": 2122,
      "etÃ©": 2123,
      "Ġfil": 2124,
      "Ġlarmes": 2125,
      "ĠAramis": 2126,
      "?\"": 2127,
      "ĠElle": 2128,
      "Ġvenu": 2129,
      "Ġhasard": 2130,
      "ĠX": 2131,
      "Ġthan": 2132,
      "ĠrÃ©v": 2133,
      "ĠjournÃ©e": 2134,
      "Ġif": 2135,
      "ĠlÃ¨vres": 2136,
      "auche": 2137,
      "ĠaperÃ§": 2138,
      "lus": 2139,
      "Ġvite": 2140,
      "alier": 2141,
      "Ġaband": 2142,
      "?Â»": 2143,
      "AprÃ¨s": 2144,
      "Ġbris": 2145,
      "esprit": 2146,
      "entes": 2147,
      "Ġrob": 2148,
      "Ġpassa": 2149,
      "ettait": 2150,
      "Ġempl": 2151,
      "ĠgrÃ¢ce": 2152,
      "ĠÃ©pau": 2153,
      "ian": 2154,
      "erai": 2155,
      "Ġcommun": 2156,
      "Ã©gl": 2157,
      "Ġeffr": 2158,
      "ys": 2159,
      "Ġdame": 2160,
      "ĠElizabeth": 2161,
      "Ġsalon": 2162,
      "ĠprÃ©cip": 2163,
      "Ġrapport": 2164,
      "Ġquitter": 2165,
      "uge": 2166,
      "ontre": 2167,
      "Ġperdu": 2168,
      "Ġvoud": 2169,
      "Ġmilles": 2170,
      "Ġcharg": 2171,
      "sieurs": 2172,
      "Ġfront": 2173,
      "ĠRe": 2174,
      "Ġtravail": 2175,
      "ĠÃ©clat": 2176,
      "Ġobserv": 2177,
      "Ġble": 2178,
      "Ġmarch": 2179,
      "usqu": 2180,
      "ely": 2181,
      "Ġwhat": 2182,
      "Ġheureux": 2183,
      "Ġfatig": 2184,
      "ĠdÃ®ner": 2185,
      "Ġsept": 2186,
      "ings": 2187,
      "des": 2188,
      "ought": 2189,
      "partout": 2190,
      "Julien": 2191,
      "Ġfaite": 2192,
      "Ġcria": 2193,
      "Ces": 2194,
      "Ġpain": 2195,
      "ĠConseil": 2196,
      "assepartout": 2197,
      "Ġcould": 2198,
      "uits": 2199,
      "arris": 2200,
      "lex": 2201,
      "Ġvag": 2202,
      "Ġrestait": 2203,
      "avantage": 2204,
      "Ã¨te": 2205,
      "Ġbouche": 2206,
      "itions": 2207,
      "igneur": 2208,
      "ock": 2209,
      "Ġmod": 2210,
      "org": 2211,
      "Ġmade": 2212,
      "ĠrÃ©pondre": 2213,
      "Ġshall": 2214,
      "bout": 2215,
      "oche": 2216,
      "Ã¨le": 2217,
      "oyez": 2218,
      "Ġsourire": 2219,
      "Oh": 2220,
      "oupe": 2221,
      "Wh": 2222,
      "ded": 2223,
      "Ġdeven": 2224,
      "Ġsortir": 2225,
      "Ġdos": 2226,
      "amment": 2227,
      "ĠMa": 2228,
      "Ġbless": 2229,
      "ĠdÃ©m": 2230,
      "Ġbrill": 2231,
      "ĠtrouvÃ©": 2232,
      "Ġprison": 2233,
      "fr": 2234,
      "Ġtel": 2235,
      "Ġroug": 2236,
      "outer": 2237,
      "ĠcrÃ©": 2238,
      "Ġjuste": 2239,
      "Ġsimple": 2240,
      "Ġremont": 2241,
      "ection": 2242,
      "ĠÃ©trange": 2243,
      "Ġpuisque": 2244,
      "Ġvivre": 2245,
      "ĠÃ¢me": 2246,
      "Ġbo": 2247,
      "ĠHen": 2248,
      "ĠdÃ©cl": 2249,
      "oun": 2250,
      "anches": 2251,
      "Ġrester": 2252,
      "Ġfoule": 2253,
      "ĠNab": 2254,
      "Ġsold": 2255,
      "eusement": 2256,
      "Ġnavire": 2257,
      "her": 2258,
      "Ġfilles": 2259,
      "Ġesc": 2260,
      "entement": 2261,
      "Ġparmi": 2262,
      "Ġdomest": 2263,
      "IT": 2264,
      "Ġdorm": 2265,
      "Ġquart": 2266,
      "ides": 2267,
      "Ġpassage": 2268,
      "exp": 2269,
      "Ġsecret": 2270,
      "Ġcinqu": 2271,
      "entend": 2272,
      "lem": 2273,
      "Ã¨ve": 2274,
      "rier": 2275,
      "Ã´le": 2276,
      "Ġsus": 2277,
      "arm": 2278,
      "uses": 2279,
      "ĠNous": 2280,
      "It": 2281,
      "way": 2282,
      "Ġstr": 2283,
      "ouff": 2284,
      "Ġtend": 2285,
      "ick": 2286,
      "Ġparti": 2287,
      "Ġregarder": 2288,
      "Ġfri": 2289,
      "arch": 2290,
      "istence": 2291,
      "Ġrespect": 2292,
      "Ġsingul": 2293,
      "eil": 2294,
      "Ġdoit": 2295,
      "Ã©rer": 2296,
      "Ġjug": 2297,
      "Ġprin": 2298,
      "ĠderniÃ¨re": 2299,
      "Ġpropre": 2300,
      "Ġmousquet": 2301,
      "Av": 2302,
      "ym": 2303,
      "ister": 2304,
      "Ġmeille": 2305,
      "ication": 2306,
      "Ã´tel": 2307,
      "Ġparticul": 2308,
      "Ġhist": 2309,
      "Ġleva": 2310,
      "face": 2311,
      "ree": 2312,
      "Ġeven": 2313,
      "acle": 2314,
      "iver": 2315,
      "Quant": 2316,
      "Ġposs": 2317,
      "ood": 2318,
      "Ġquar": 2319,
      "Ã®t": 2320,
      "Des": 2321,
      "Ġsait": 2322,
      "Ġenn": 2323,
      "Ġensemble": 2324,
      "Ġfle": 2325,
      "Ġgouver": 2326,
      "ĠNed": 2327,
      "Ġlang": 2328,
      "Ġtort": 2329,
      "Ġdoig": 2330,
      "ck": 2331,
      "aig": 2332,
      "Ġcuis": 2333,
      "ann": 2334,
      "Ġtres": 2335,
      "Ġcamar": 2336,
      "Ġdest": 2337,
      "Ġpois": 2338,
      "Ġafter": 2339,
      "itation": 2340,
      "Ġdites": 2341,
      "Ġsoci": 2342,
      "udence": 2343,
      "Ġdoigt": 2344,
      "ĠÃĢ": 2345,
      "Ġpou": 2346,
      "Ġhand": 2347,
      "Ġhaute": 2348,
      "osse": 2349,
      "Ġvolont": 2350,
      "Ã§ons": 2351,
      "Ġmouvement": 2352,
      "ueur": 2353,
      "Ġbasse": 2354,
      "andide": 2355,
      "ĠÃ©m": 2356,
      "ler": 2357,
      "lnes": 2358,
      "ĠtraÃ®": 2359,
      "Ġkn": 2360,
      "Ġlam": 2361,
      "oyÃ©": 2362,
      "Ġconse": 2363,
      "ĠrÃ©f": 2364,
      "ĠprÃ©sence": 2365,
      "ĠMrs": 2366,
      "Ġrappel": 2367,
      "Ġtrembl": 2368,
      "occup": 2369,
      "ĠK": 2370,
      "oubl": 2371,
      "urait": 2372,
      "onna": 2373,
      "Ġcourant": 2374,
      "Ġpus": 2375,
      "erte": 2376,
      "rie": 2377,
      "ĠMaheu": 2378,
      "!\"": 2379,
      "cur": 2380,
      "oque": 2381,
      "Ġfis": 2382,
      "Ġparlait": 2383,
      "Ġfur": 2384,
      "ĠrÃ©pÃ©t": 2385,
      "Ã©dÃ©on": 2386,
      "entre": 2387,
      "Ġpours": 2388,
      "ments": 2389,
      "ĠMlle": 2390,
      "ĠÂ»,": 2391,
      "Ġabsol": 2392,
      "dire": 2393,
      "mma": 2394,
      "Ġpasse": 2395,
      "Ġey": 2396,
      "ĠsiÃ¨": 2397,
      "Ġgrandes": 2398,
      "Ġfaisant": 2399,
      "Ġdouc": 2400,
      "hors": 2401,
      "Ġduc": 2402,
      "ailles": 2403,
      "arer": 2404,
      "Ġetre": 2405,
      "Ġquelqu": 2406,
      "atherine": 2407,
      "Ġessay": 2408,
      "Ġhal": 2409,
      "Ġchant": 2410,
      "issaient": 2411,
      "ope": 2412,
      "ĠdÃ©part": 2413,
      "Ġenviron": 2414,
      "CH": 2415,
      "ves": 2416,
      "assi": 2417,
      "Ġsud": 2418,
      "Ġamour": 2419,
      "Ġapport": 2420,
      "obs": 2421,
      "Ġtomber": 2422,
      "Ġsav": 2423,
      "aissez": 2424,
      "Ġris": 2425,
      "Ġray": 2426,
      "igh": 2427,
      "Ġgrav": 2428,
      "ords": 2429,
      "Ġimport": 2430,
      "inte": 2431,
      "Ġpard": 2432,
      "Ġtrente": 2433,
      "aperÃ§": 2434,
      "Ġanc": 2435,
      "ĠthÃ©": 2436,
      "eaulnes": 2437,
      "expl": 2438,
      "Ġcav": 2439,
      "Ġgauche": 2440,
      "iche": 2441,
      "oncer": 2442,
      "Ġensuite": 2443,
      "Ġprob": 2444,
      "Ġvoyant": 2445,
      "ĠÃ©clair": 2446,
      "Ġmauvais": 2447,
      "ty": 2448,
      "vers": 2449,
      "Ġsigne": 2450,
      "ites": 2451,
      "Ġfaites": 2452,
      "Ġdonnait": 2453,
      "Ġmariage": 2454,
      "flÃ©ch": 2455,
      "Ġoblig": 2456,
      "Ġtheir": 2457,
      "Ġthese": 2458,
      "Ġdemande": 2459,
      "ĠpÃ¢le": 2460,
      "fs": 2461,
      "Ġlis": 2462,
      "ĠsÃ©": 2463,
      "Ġcoul": 2464,
      "ilde": 2465,
      "onst": 2466,
      "Ġrencontre": 2467,
      "Ġchacun": 2468,
      "Ġsavais": 2469,
      "ĠmÃ©t": 2470,
      "Ġperdre": 2471,
      "Ġdistance": 2472,
      "Ġupon": 2473,
      "Ġarriver": 2474,
      "Ġgouvern": 2475,
      "In": 2476,
      "af": 2477,
      "eng": 2478,
      "ĠTrÃ©": 2479,
      "ohn": 2480,
      "reur": 2481,
      "Ġaujourd": 2482,
      "ife": 2483,
      "athilde": 2484,
      "ron": 2485,
      "Ġdavantage": 2486,
      "Ġreporter": 2487,
      "ices": 2488,
      "Ġattend": 2489,
      "ĠsÃ»r": 2490,
      "eterre": 2491,
      "Ġsurface": 2492,
      "Ã©rieure": 2493,
      "ĠdiffÃ©r": 2494,
      "ĠextrÃªme": 2495,
      "Ġsombre": 2496,
      "old": 2497,
      "ĠÃ©n": 2498,
      "Ġvivement": 2499,
      "ode": 2500,
      "Ġjardin": 2501,
      "Ġonly": 2502,
      "Ġregret": 2503,
      "Ġsentait": 2504,
      "Ġdisting": 2505,
      "ngleterre": 2506,
      "ĠdÃ©r": 2507,
      "ĠdÃ©ch": 2508,
      "Ġarriva": 2509,
      "Ġdebout": 2510,
      "led": 2511,
      "Ġfum": 2512,
      "itiÃ©": 2513,
      "Ġchien": 2514,
      "Ġsurprise": 2515,
      "gÃ©": 2516,
      "jets": 2517,
      "Ġtap": 2518,
      "insi": 2519,
      "ĠhÃ©r": 2520,
      "Ġparaissait": 2521,
      "illage": 2522,
      "Ġforme": 2523,
      "Ġpassait": 2524,
      "aleur": 2525,
      "oud": 2526,
      "Â»,": 2527,
      "ĠrÃ©ponse": 2528,
      "Ġcontent": 2529,
      "AP": 2530,
      "Ġpron": 2531,
      "Ġimagin": 2532,
      "ences": 2533,
      "Est": 2534,
      "ĠY": 2535,
      "erver": 2536,
      "ita": 2537,
      "Ġvoulut": 2538,
      "ĠBonacieux": 2539,
      "Ġmus": 2540,
      "Ġcommand": 2541,
      "aurait": 2542,
      "ng": 2543,
      "romp": 2544,
      "reuse": 2545,
      "Ġnour": 2546,
      "Ġinqui": 2547,
      "ĠbrÃ»": 2548,
      "Ġsuivant": 2549,
      "Ġpromen": 2550,
      "rons": 2551,
      "Ġtriste": 2552,
      "ordre": 2553,
      "Ġeffort": 2554,
      "Ġcheveux": 2555,
      "Ġrevenir": 2556,
      "yrt": 2557,
      "uie": 2558,
      "ĠMole": 2559,
      "Ġsujet": 2560,
      "Ġouvert": 2561,
      "ĠmaÃ®tresse": 2562,
      "yrton": 2563,
      "Ġsuivre": 2564,
      "fore": 2565,
      "ple": 2566,
      "son": 2567,
      "Ġbonn": 2568,
      "Ġtrain": 2569,
      "ĠDarcy": 2570,
      "Ġvery": 2571,
      "Ã©b": 2572,
      "Ġtime": 2573,
      "Ġavais": 2574,
      "Ġresta": 2575,
      "Ġ2": 2576,
      "Ãªtres": 2577,
      "ĠcolÃ¨re": 2578,
      "Ġpubl": 2579,
      "Ġchevaux": 2580,
      "uir": 2581,
      "utile": 2582,
      "ĠSi": 2583,
      "Ġvoici": 2584,
      "Ġservice": 2585,
      "Cela": 2586,
      "Ġmiss": 2587,
      "Ġeng": 2588,
      "ĠrÃ©flÃ©ch": 2589,
      "Ġvraiment": 2590,
      "Ġrelev": 2591,
      "ĠarrÃªt": 2592,
      "Ġcombien": 2593,
      "Ġmagn": 2594,
      "hed": 2595,
      "ingley": 2596,
      "Ġatte": 2597,
      "Ġsemble": 2598,
      "Ġveille": 2599,
      "Ġquant": 2600,
      "Ġavions": 2601,
      "Ġsay": 2602,
      "ivement": 2603,
      "Ġmarche": 2604,
      "ally": 2605,
      "Ġmessieurs": 2606,
      "ĠarrivÃ©": 2607,
      "Ġcomprendre": 2608,
      "ĠThÃ©rÃ¨se": 2609,
      "Qui": 2610,
      "Ġjoy": 2611,
      "Ã¨tres": 2612,
      "ames": 2613,
      "oiselle": 2614,
      "ĠLand": 2615,
      "Ġcaract": 2616,
      "Ġregardant": 2617,
      "Or": 2618,
      "ning": 2619,
      "Ġrepos": 2620,
      "ĠGran": 2621,
      "Ġcourage": 2622,
      "euses": 2623,
      "Ġtwo": 2624,
      "Ġtaille": 2625,
      "ingoire": 2626,
      "tru": 2627,
      "Ġposition": 2628,
      "Ġshould": 2629,
      "Ġsituation": 2630,
      "ĠTrÃ©ville": 2631,
      "Lors": 2632,
      "wn": 2633,
      "Ġcontraire": 2634,
      "Ġmoit": 2635,
      "ĠÃ©tonn": 2636,
      "ĠLaur": 2637,
      "ĠMarches": 2638,
      "Ġcinquante": 2639,
      "Ġseconde": 2640,
      "Ġjeta": 2641,
      "ĠGranite": 2642,
      "Ġfaisaient": 2643,
      "ennet": 2644,
      "_,": 2645,
      "ld": 2646,
      "uve": 2647,
      "Ġalla": 2648,
      "Ġpouvaient": 2649,
      "Ġattention": 2650,
      "Ġcanot": 2651,
      "Ġdroite": 2652,
      "Ġquinze": 2653,
      "Ġchang": 2654,
      "Ġforc": 2655,
      "ĠprÃ©v": 2656,
      "Ġpierre": 2657,
      "ates": 2658,
      "Ġimmob": 2659,
      "ĠsÃ©par": 2660,
      "Ġvin": 2661,
      "Ġlat": 2662,
      "Ã¢ch": 2663,
      "ails": 2664,
      "Ġmyst": 2665,
      "ĠdÃ»": 2666,
      "Ġpense": 2667,
      "itait": 2668,
      "ĠSt": 2669,
      "Ġarg": 2670,
      "Ġdevin": 2671,
      "ĠdÃ©jeu": 2672,
      "Ġdescend": 2673,
      "Ġretrouv": 2674,
      "Ġprofesseur": 2675,
      "honneur": 2676,
      "lles": 2677,
      "Ġdehors": 2678,
      "Ġdevoir": 2679,
      "Ġdonna": 2680,
      "ĠmisÃ©r": 2681,
      "Ġcad": 2682,
      "anÃ§a": 2683,
      "Ġparc": 2684,
      "Ġdiable": 2685,
      "Ġpenser": 2686,
      "Ġemport": 2687,
      "Ġendroit": 2688,
      "Ġlog": 2689,
      "Ġore": 2690,
      "aprÃ¨s": 2691,
      "Ġdanger": 2692,
      "unes": 2693,
      "here": 2694,
      "Ġconst": 2695,
      "Ġcompt": 2696,
      "hum": 2697,
      "lam": 2698,
      "nÃ©": 2699,
      "erm": 2700,
      "Ġchair": 2701,
      "ifique": 2702,
      "liqu": 2703,
      "Ġgenoux": 2704,
      "arrÃªta": 2705,
      "Ġmourir": 2706,
      "Ã¢teau": 2707,
      "CHAP": 2708,
      "lait": 2709,
      "inst": 2710,
      "Ã©cl": 2711,
      "ĠCatherine": 2712,
      "Ġarm": 2713,
      "assÃ©": 2714,
      "Ġportait": 2715,
      "Ġsuppl": 2716,
      "House": 2717,
      "rine": 2718,
      "Ġid": 2719,
      "ĠprÃ©par": 2720,
      "Ġimpr": 2721,
      "Ġmalheur": 2722,
      "ĠJean": 2723,
      "Ġpleine": 2724,
      "yp": 2725,
      "Ã©tu": 2726,
      "Ġconc": 2727,
      "Ġmou": 2728,
      "Ġfir": 2729,
      "Ġreine": 2730,
      "imes": 2731,
      "acre": 2732,
      "ĠPour": 2733,
      "Ġregards": 2734,
      "attend": 2735,
      "Ġlettres": 2736,
      "ĠmoitiÃ©": 2737,
      "ĠLaurent": 2738,
      "ness": 2739,
      "Ġpoit": 2740,
      "Ġmet": 2741,
      "ĠtÃ©m": 2742,
      "urÃ©": 2743,
      "Ġthought": 2744,
      "Ġarbres": 2745,
      "auss": 2746,
      "Ġsin": 2747,
      "indre": 2748,
      "ĠFrance": 2749,
      "Ġcirconst": 2750,
      "ĠÃ©trang": 2751,
      "Ses": 2752,
      "ked": 2753,
      "rois": 2754,
      "oureux": 2755,
      "Ġcoin": 2756,
      "Ġmoindre": 2757,
      "Ġvain": 2758,
      "Ġroul": 2759,
      "ĠGÃ©dÃ©on": 2760,
      "sement": 2761,
      "Ġplan": 2762,
      "ĠCan": 2763,
      "ĠAlice": 2764,
      "ellig": 2765,
      "Tu": 2766,
      "ouis": 2767,
      "Ã¢tre": 2768,
      "Ġdemeure": 2769,
      "lia": 2770,
      "quels": 2771,
      "ĠÃītienne": 2772,
      "ĠAlors": 2773,
      "ĠÃ©paules": 2774,
      "erent": 2775,
      "Ġfol": 2776,
      "ĠÃ©tant": 2777,
      "ĠPassepartout": 2778,
      "ĠdÃ©pl": 2779,
      "Ġmorce": 2780,
      "Ġcouvert": 2781,
      "ĠdÃ©clar": 2782,
      "00": 2783,
      "Ġneuf": 2784,
      "ĠMeaulnes": 2785,
      "ĠrÃ©pondis": 2786,
      "Ġcertainement": 2787,
      "Ġsatisf": 2788,
      "LÃł": 2789,
      "Ġveut": 2790,
      "elopp": 2791,
      "otion": 2792,
      "ĠNe": 2793,
      "ious": 2794,
      "jest": 2795,
      "Ġsoin": 2796,
      "Ġache": 2797,
      "Ġdel": 2798,
      "Ġnord": 2799,
      "Ġhabitu": 2800,
      "ĠÃ©chapp": 2801,
      "ght": 2802,
      "ordinaire": 2803,
      "Ġpouvez": 2804,
      "Ġfar": 2805,
      "Ġjuge": 2806,
      "Ġtravaill": 2807,
      "iquer": 2808,
      "Ġspect": 2809,
      "Ġpoursuiv": 2810,
      "Ġaig": 2811,
      "Ġlaissa": 2812,
      "Ġnouvelles": 2813,
      "ĠprÃ©f": 2814,
      "Ġquarante": 2815,
      "Ġcours": 2816,
      "Ġrang": 2817,
      "rif": 2818,
      "Ġtermin": 2819,
      "Ġabout": 2820,
      "ĠlaissÃ©": 2821,
      "Ġrevint": 2822,
      "Ġeyes": 2823,
      "Ġcous": 2824,
      "Ġvient": 2825,
      "elton": 2826,
      "aintenant": 2827,
      "ĠHarris": 2828,
      "Ġdemandai": 2829,
      "Ġpensa": 2830,
      "Ġlibre": 2831,
      "Ġparfaitement": 2832,
      "iff": 2833,
      "Ġentrer": 2834,
      "Ġheureuse": 2835,
      "ĠdÃ©lic": 2836,
      "Ġdemain": 2837,
      "Ġem": 2838,
      "ateur": 2839,
      "ĠÃ©cout": 2840,
      "Ġlivre": 2841,
      "Ġreconnaiss": 2842,
      "ĠannÃ©es": 2843,
      "lelia": 2844,
      "ileas": 2845,
      "iance": 2846,
      "ĠUn": 2847,
      "Ġnoire": 2848,
      "Ġover": 2849,
      "Ġappart": 2850,
      "Ġstup": 2851,
      "Ã©glise": 2852,
      "Ã¢che": 2853,
      "ĠÃ©lev": 2854,
      "Ġserais": 2855,
      "Ġcach": 2856,
      "ĠOn": 2857,
      "Ġsecou": 2858,
      "Ġrapidement": 2859,
      "VoilÃł": 2860,
      "Ġos": 2861,
      "Ġoth": 2862,
      "oires": 2863,
      "ueil": 2864,
      "Ġcris": 2865,
      "Ġbefore": 2866,
      "Ġpremiers": 2867,
      "ĠvÃ©ritable": 2868,
      "Ġmost": 2869,
      "Ġhers": 2870,
      "agÃ©": 2871,
      "asses": 2872,
      "Ġvoyez": 2873,
      "usquement": 2874,
      "Ġpont": 2875,
      "Ġtirer": 2876,
      "meme": 2877,
      "ĠÃ©tat": 2878,
      "ĠMathilde": 2879,
      "ĠagrÃ©": 2880,
      "Ġlook": 2881,
      "Ġfacile": 2882,
      "Ġpoitrine": 2883,
      "Ġbec": 2884,
      "Ġnever": 2885,
      "ote": 2886,
      "Ġfranch": 2887,
      "Ġaim": 2888,
      "Ġdown": 2889,
      "ĠmÃ©p": 2890,
      "Ġtete": 2891,
      "onnait": 2892,
      "Ã¢me": 2893,
      "izon": 2894,
      "Ġprinci": 2895,
      "eorge": 2896,
      "lons": 2897,
      "Ġour": 2898,
      "Ġsout": 2899,
      "ompl": 2900,
      "ĠprÃ©t": 2901,
      "ĠPl": 2902,
      "ated": 2903,
      "Ġfini": 2904,
      "con": 2905,
      "Ġbel": 2906,
      "ĠDe": 2907,
      "ĠJim": 2908,
      "ĠVotre": 2909,
      "Ġlongues": 2910,
      "Ġsuffis": 2911,
      "Ġlibert": 2912,
      "Ġthen": 2913,
      "Ġallez": 2914,
      "Ġadmir": 2915,
      "Ġdestin": 2916,
      "Ġknow": 2917,
      "anim": 2918,
      "olmes": 2919,
      "ĠCandide": 2920,
      "Ġyoung": 2921,
      "ussent": 2922,
      "At": 2923,
      "Mme": 2924,
      "ĠQue": 2925,
      "Ġlentement": 2926,
      "Ġsoi": 2927,
      "Ã©rÃªt": 2928,
      "Ġdonne": 2929,
      "Sur": 2930,
      "Ġdents": 2931,
      "Ġlife": 2932,
      "ision": 2933,
      "Ġbateau": 2934,
      "Ã©tr": 2935,
      "ĠauprÃ¨s": 2936,
      "ĠrÃ©veill": 2937,
      "Ġattendre": 2938,
      "Ġassis": 2939,
      "Ġspe": 2940,
      "ĠespÃ¨": 2941,
      "ĠdÃ©jeuner": 2942,
      "Ar": 2943,
      "Ġdress": 2944,
      "Ġprenait": 2945,
      "amp": 2946,
      "ives": 2947,
      "ĠLy": 2948,
      "ayant": 2949,
      "Ġtrouve": 2950,
      "Ġmonter": 2951,
      "Ã©loign": 2952,
      "Ġblanc": 2953,
      "Ġgentlem": 2954,
      "Ġcampagne": 2955,
      "Tous": 2956,
      "hÃ´tel": 2957,
      "land": 2958,
      "Ġmust": 2959,
      "erne": 2960,
      "Ġbais": 2961,
      "aude": 2962,
      "cep": 2963,
      "ĠreconnaÃ®tre": 2964,
      "Ġfaud": 2965,
      "amille": 2966,
      "ĠMont": 2967,
      "emple": 2968,
      "Ġagain": 2969,
      "Ã©chapp": 2970,
      "Ġdifficile": 2971,
      "Fabrizio": 2972,
      "ful": 2973,
      "Ġlarg": 2974,
      "Ġhur": 2975,
      "Ġgout": 2976,
      "Ġapres": 2977,
      "Ã©di": 2978,
      "Ġphras": 2979,
      "........": 2980,
      "Ġmurmura": 2981,
      "Ġpav": 2982,
      "Ãªter": 2983,
      "ĠLes": 2984,
      "Ġard": 2985,
      "ĠÃ©crit": 2986,
      "Ġdirection": 2987,
      "Ġhauteur": 2988,
      "Ġquoique": 2989,
      "Ġhistoire": 2990,
      "Ġfirst": 2991,
      "Ġdim": 2992,
      "Ġvaisse": 2993,
      "ĠBingley": 2994,
      "Ġterr": 2995,
      "ITRE": 2996,
      "CHAPITRE": 2997,
      "Comment": 2998,
      "Ġmons": 2999,
      "Ãªcher": 3000,
      "ifs": 3001,
      "ĠÃ©prouv": 3002,
      "Ġcompris": 3003,
      "Ġpolit": 3004,
      "Aussi": 3005,
      "fort": 3006,
      "ral": 3007,
      "Ġnul": 3008,
      "Ġrej": 3009,
      "rice": 3010,
      "Ã©rÃ©": 3011,
      "appel": 3012,
      "Ġsortit": 3013,
      "Ne": 3014,
      "dain": 3015,
      "lant": 3016,
      "lot": 3017,
      "Ġait": 3018,
      "ĠprÃªtre": 3019,
      "Ġart": 3020,
      "Ġaffaires": 3021,
      "cin": 3022,
      "Ġcord": 3023,
      "arriv": 3024,
      "Ã§ant": 3025,
      "Ġtrouvai": 3026,
      "Ġfaim": 3027,
      "ĠnÃ©cessaire": 3028,
      "ĠpÃ»t": 3029,
      "Ġgui": 3030,
      "Ġmake": 3031,
      "eusse": 3032,
      "Ġfont": 3033,
      "Ã»mes": 3034,
      "Ġdevaient": 3035,
      "ieusement": 3036,
      "Ġquelquefois": 3037,
      "Ġpere": 3038,
      "Ġressembl": 3039,
      "Ġmill": 3040,
      "ires": 3041,
      "Ġway": 3042,
      "ĠCl": 3043,
      "ned": 3044,
      "odo": 3045,
      "Ġjambes": 3046,
      "ogne": 3047,
      "let": 3048,
      "oÃ¹": 3049,
      "oeil": 3050,
      "Ġbaiss": 3051,
      "Ġprot": 3052,
      "amais": 3053,
      "Ġflam": 3054,
      "Ġtroubl": 3055,
      "Elizabeth": 3056,
      "ges": 3057,
      "Ġdid": 3058,
      "onie": 3059,
      "Ġbet": 3060,
      "orn": 3061,
      "Ġcharge": 3062,
      "Ġz": 3063,
      "Ġhapp": 3064,
      "ession": 3065,
      "Ġcontem": 3066,
      "ĠforÃªt": 3067,
      "Ġvisite": 3068,
      "Ġmerve": 3069,
      "iquement": 3070,
      "Ġcompagnie": 3071,
      "Ġexcell": 3072,
      "escalier": 3073,
      "Ġdifficult": 3074,
      "Ġrobe": 3075,
      "Toute": 3076,
      "Ġligne": 3077,
      "Ġpist": 3078,
      "eries": 3079,
      "ĠhÃ©s": 3080,
      "Ġinstants": 3081,
      "ĠpiÃ¨ce": 3082,
      "ocher": 3083,
      "aces": 3084,
      "Ġbrusquement": 3085,
      "Ġpetites": 3086,
      "ield": 3087,
      "This": 3088,
      "Du": 3089,
      "isc": 3090,
      "Ġvoil": 3091,
      "ueill": 3092,
      "Ġmange": 3093,
      "Ġdouleur": 3094,
      "Ġcoucher": 3095,
      "uait": 3096,
      "Ġfoi": 3097,
      "Ġbre": 3098,
      "Ġchaud": 3099,
      "Ġvenue": 3100,
      "ĠconsÃ©qu": 3101,
      "Ġlaissait": 3102,
      "Ġgood": 3103,
      "ouverte": 3104,
      "Ġsurpris": 3105,
      "Ainsi": 3106,
      "Ġdout": 3107,
      "ouer": 3108,
      "Ġtal": 3109,
      "lever": 3110,
      "Ġmalade": 3111,
      "Ġclair": 3112,
      "ĠParma": 3113,
      "Ġrivage": 3114,
      "ĠcommenÃ§ait": 3115,
      "Ġprincip": 3116,
      "But": 3117,
      "hing": 3118,
      "Ġavent": 3119,
      "ĠFran": 3120,
      "ĠrÃ©un": 3121,
      "Ġferm": 3122,
      "thing": 3123,
      "Ġsuppos": 3124,
      "Ġnaturelle": 3125,
      "enfant": 3126,
      "Ġpapier": 3127,
      "ĠreÃ§u": 3128,
      "Ġchapeau": 3129,
      "Ġmarquis": 3130,
      "Ġsusp": 3131,
      "bas": 3132,
      "Ġach": 3133,
      "antÃ©": 3134,
      "iennes": 3135,
      "ĠrÃ©pliqu": 3136,
      "Ġferme": 3137,
      "Ġcrainte": 3138,
      "ĠrÃ©flex": 3139,
      "Ġpan": 3140,
      "Ġtor": 3141,
      "Ġeuss": 3142,
      "ĠconnaÃ®tre": 3143,
      "Ġoffic": 3144,
      "Pourquoi": 3145,
      "Ma": 3146,
      "ercev": 3147,
      "Ġber": 3148,
      "Ġwor": 3149,
      "Ġallons": 3150,
      "ĠpensÃ©es": 3151,
      "Ġcamarades": 3152,
      "Ã©tude": 3153,
      "ĠmÃ©l": 3154,
      "oman": 3155,
      "Ġentr": 3156,
      "retÃ©": 3157,
      "Ġvaste": 3158,
      "lect": 3159,
      "Ġlad": 3160,
      "Ġjolie": 3161,
      "Ġchaise": 3162,
      "Ġprojet": 3163,
      "Ġgrosse": 3164,
      "Ġsaut": 3165,
      "ĠMon": 3166,
      "trait": 3167,
      "Ġsemaine": 3168,
      "Ġpensait": 3169,
      "Ġdoux": 3170,
      "importe": 3171,
      "ĠcaractÃ¨re": 3172,
      "Ġrass": 3173,
      "ĠchÃ¢teau": 3174,
      "ĠComment": 3175,
      "Ġangl": 3176,
      "esses": 3177,
      "illon": 3178,
      "exc": 3179,
      "Ġgliss": 3180,
      "Ġretrouver": 3181,
      "ĠmÃ©dec": 3182,
      "ĠsociÃ©tÃ©": 3183,
      "Ġother": 3184,
      "cul": 3185,
      "Ġmach": 3186,
      "Ġcraign": 3187,
      "Ġexistence": 3188,
      "Ġblanche": 3189,
      "ĠbÃ¢timent": 3190,
      "Ġnow": 3191,
      "Ġveu": 3192,
      "abbÃ©": 3193,
      "ositÃ©": 3194,
      "Ġceci": 3195,
      "Ġmay": 3196,
      "ĠGringoire": 3197,
      "Ġachev": 3198,
      "Sans": 3199,
      "ĠmÃ©r": 3200,
      "Ġfourn": 3201,
      "its": 3202,
      "Ġpluie": 3203,
      "Ġwell": 3204,
      "oph": 3205,
      "appar": 3206,
      "Ġcondition": 3207,
      "Ġabsolument": 3208,
      "nent": 3209,
      "Ġvap": 3210,
      "Ġlac": 3211,
      "Ġgeste": 3212,
      "Ġvenaient": 3213,
      "ĠHolmes": 3214,
      "Ġappe": 3215,
      "Ġservir": 3216,
      "ĠespÃ©r": 3217,
      "affaire": 3218,
      "Ġmauvaise": 3219,
      "asim": 3220,
      "Ġchass": 3221,
      "onnu": 3222,
      "Ġferait": 3223,
      "Ġporter": 3224,
      "Ġgentil": 3225,
      "Ġja": 3226,
      "Ġmere": 3227,
      "Ġthr": 3228,
      "ĠparlÃ©": 3229,
      "Ġorg": 3230,
      "Depuis": 3231,
      "ĠlÃ©gÃ¨re": 3232,
      "ÂĴ": 3233,
      "Ġres": 3234,
      "adame": 3235,
      "Ġprofonde": 3236,
      "Ġdocteur": 3237,
      "ĠtraÃ®n": 3238,
      "ilement": 3239,
      "Ġdois": 3240,
      "ili": 3241,
      "ointe": 3242,
      "Ġmoments": 3243,
      "Ġchamp": 3244,
      "Åĵil": 3245,
      "asimodo": 3246,
      "Ã©f": 3247,
      "Ġriche": 3248,
      "oln": 3249,
      "ĠClelia": 3250,
      "Ġdisant": 3251,
      "ĠDE": 3252,
      "incoln": 3253,
      "ĠgoÃ»t": 3254,
      "ft": 3255,
      "Ġfant": 3256,
      "Ġcome": 3257,
      "Ġexamin": 3258,
      "Ġcelles": 3259,
      "ĠreprÃ©s": 3260,
      "Ġembarr": 3261,
      "Ġlike": 3262,
      "Ġsentiments": 3263,
      "Ġjustice": 3264,
      "Ġmalheureux": 3265,
      "Ġdomestique": 3266,
      "jestÃ©": 3267,
      "can": 3268,
      "hait": 3269,
      "ari": 3270,
      "arn": 3271,
      "iser": 3272,
      "uns": 3273,
      "ĠCamille": 3274,
      "Ġang": 3275,
      "Ġjusque": 3276,
      "Ġretomb": 3277,
      "Ġbeaux": 3278,
      "Ġjeter": 3279,
      "Ġimmense": 3280,
      "ĠcommenÃ§": 3281,
      "Ġmeur": 3282,
      "Ġbons": 3283,
      "Ġprend": 3284,
      "riers": 3285,
      "ĠÃ©troit": 3286,
      "Ġmalad": 3287,
      "Ġdouce": 3288,
      "Ġtomba": 3289,
      "Ġlieues": 3290,
      "ĠpÃ©nÃ©t": 3291,
      "bus": 3292,
      "Ġmu": 3293,
      "inct": 3294,
      "Ġvillage": 3295,
      "emoiselle": 3296,
      "Ġrepl": 3297,
      "Ġthree": 3298,
      "Ġmesure": 3299,
      "Ġbeg": 3300,
      "istes": 3301,
      "ered": 3302,
      "curitÃ©": 3303,
      "ĠidÃ©es": 3304,
      "bon": 3305,
      "Ġpourrais": 3306,
      "idemment": 3307,
      "Ġheart": 3308,
      "Ġtuer": 3309,
      "Ġcrime": 3310,
      "paravant": 3311,
      "Ġfound": 3312,
      "Ġoccasion": 3313,
      "ĠCanad": 3314,
      "Ġcle": 3315,
      "Ġcess": 3316,
      "Ġmag": 3317,
      "ĠmÃ¨tres": 3318,
      "Ġhow": 3319,
      "Ġpoche": 3320,
      "Ġlove": 3321,
      "ĠcommenÃ§a": 3322,
      "horizon": 3323,
      "cÃ©an": 3324,
      "uÃ©": 3325,
      "umes": 3326,
      "Ġke": 3327,
      "inion": 3328,
      "Ġguer": 3329,
      "ands": 3330,
      "Ġbrave": 3331,
      "Ġallaient": 3332,
      "Ġcertaine": 3333,
      "Ġdescendre": 3334,
      "Ġplaisant": 3335,
      "Ġgenre": 3336,
      "Ġrelig": 3337,
      "Athos": 3338,
      "Maintenant": 3339,
      "Ġlire": 3340,
      "usion": 3341,
      "ĠtantÃ´t": 3342,
      "lÃ©": 3343,
      "tion": 3344,
      "ric": 3345,
      "endue": 3346,
      "ĠCont": 3347,
      "Ġfriss": 3348,
      "ĠBennet": 3349,
      "Ġsouhait": 3350,
      "extr": 3351,
      "Ġflots": 3352,
      "hist": 3353,
      "ject": 3354,
      "Ġlune": 3355,
      "Ã©ress": 3356,
      "Ġpes": 3357,
      "Ġrav": 3358,
      "Ġgai": 3359,
      "Ġrecevoir": 3360,
      "Ġprix": 3361,
      "ĠarrivÃ©e": 3362,
      "ĠPhileas": 3363,
      "Ġconnaissance": 3364,
      "aÃ¯": 3365,
      "form": 3366,
      "erci": 3367,
      "Ġrich": 3368,
      "Ġparle": 3369,
      "riere": 3370,
      "Ġgrave": 3371,
      "Ġforte": 3372,
      "ĠFelton": 3373,
      "Ġdoucement": 3374,
      "cre": 3375,
      "ove": 3376,
      "Ġtellement": 3377,
      "Ġhonn": 3378,
      "aving": 3379,
      "Ġchange": 3380,
      "Ã©ration": 3381,
      "idence": 3382,
      "Ġwithout": 3383,
      "Ġsupp": 3384,
      "ON": 3385,
      "ĠmÃ©n": 3386,
      "elon": 3387,
      "Ġnez": 3388,
      "ĠVer": 3389,
      "Ġcame": 3390,
      "Ġcroyait": 3391,
      "Ġtransport": 3392,
      "Ġsommeil": 3393,
      "Ġmidi": 3394,
      "Ġfoll": 3395,
      "Ġchois": 3396,
      "Ġaccompagn": 3397,
      "ĠdÃ©ja": 3398,
      "Ġdirige": 3399,
      "Ġbleu": 3400,
      "Ġherself": 3401,
      "ĠmÃ©pris": 3402,
      "ĠCanadien": 3403,
      "pent": 3404,
      "Ġsoix": 3405,
      "entendre": 3406,
      "Ġbelles": 3407,
      "Ġchance": 3408,
      "Ġconcl": 3409,
      "Ġvoyag": 3410,
      "ĠbeautÃ©": 3411,
      "Ġvoulais": 3412,
      "Ġaura": 3413,
      "ĠimmÃ©di": 3414,
      "Ġsimplement": 3415,
      "Ġpeau": 3416,
      "Ġwent": 3417,
      "Ã©cut": 3418,
      "ĠÃ©qu": 3419,
      "Ġsentit": 3420,
      "Ġsembla": 3421,
      "ĠÃ©loign": 3422,
      "ĠguÃ¨re": 3423,
      "Ġeffray": 3424,
      "ep": 3425,
      "rup": 3426,
      "Ġdames": 3427,
      "olog": 3428,
      "ignes": 3429,
      "venir": 3430,
      "dessous": 3431,
      "oeu": 3432,
      "Ġvict": 3433,
      "ission": 3434,
      "Ġverre": 3435,
      "Ġraisonn": 3436,
      "rage": 3437,
      "ĠÃ®le": 3438,
      "istre": 3439,
      "rid": 3440,
      "riÃ¨res": 3441,
      "aval": 3442,
      "Ġplant": 3443,
      "atement": 3444,
      "Ġdouze": 3445,
      "Ġautrefois": 3446,
      "Ġgoing": 3447,
      "ĠriviÃ¨re": 3448,
      "Ġdisparu": 3449,
      "ickham": 3450,
      "Ġimmobile": 3451,
      "Ġspectacle": 3452,
      "rÃ©t": 3453,
      "Ġjol": 3454,
      "orÃ©": 3455,
      "Ã©tat": 3456,
      "Ġconsol": 3457,
      "Ġdouble": 3458,
      "Ġtake": 3459,
      "Ġvoudrais": 3460,
      "Ġplateau": 3461,
      "Ġois": 3462,
      "aband": 3463,
      "Ã©rence": 3464,
      "Ġallum": 3465,
      "ĠFix": 3466,
      "ĠfenÃªtres": 3467,
      "Ġdoigts": 3468,
      "ks": 3469,
      "ĠtÃ´t": 3470,
      "Ġbi": 3471,
      "med": 3472,
      "Ã¨g": 3473,
      "Ã¨me": 3474,
      "ĠLord": 3475,
      "ombres": 3476,
      "ĠrÃ©d": 3477,
      "Ġcoqu": 3478,
      "Ġprisonn": 3479,
      "Ġconduis": 3480,
      "Ġentendit": 3481,
      "Ġnoble": 3482,
      "Ġcompagnon": 3483,
      "Ġretourner": 3484,
      "Ġgagner": 3485,
      "Ġauquel": 3486,
      "ĠAv": 3487,
      "ared": 3488,
      "Ġarrivait": 3489,
      "Ġpolice": 3490,
      "Ġfavor": 3491,
      "Ġfollow": 3492,
      "Ġsoixante": 3493,
      "Ġpoign": 3494,
      "anou": 3495,
      "Ġmight": 3496,
      "Ġvig": 3497,
      "iennent": 3498,
      "Ġchaleur": 3499,
      "geois": 3500,
      "Ġfaits": 3501,
      "Ġflot": 3502,
      "ĠdÃ©tails": 3503,
      "Ġordre": 3504,
      "anchet": 3505,
      "ĠlibertÃ©": 3506,
      "Ġgentilhomme": 3507,
      "ub": 3508,
      "ĠparaÃ®t": 3509,
      "avons": 3510,
      "Ġinn": 3511,
      "ĠCr": 3512,
      "Ġpersu": 3513,
      "ĠsoirÃ©e": 3514,
      "Cyrus": 3515,
      "You": 3516,
      "Ġmorte": 3517,
      "Ġrecher": 3518,
      "Ġprise": 3519,
      "intÃ©rieur": 3520,
      "Ġconduite": 3521,
      "ĠÃ©vÃ©n": 3522,
      "approcha": 3523,
      "Quelques": 3524,
      "Ġlourd": 3525,
      "Ġpointe": 3526,
      "Ġmine": 3527,
      "ĠGeorge": 3528,
      "ancer": 3529,
      "As": 3530,
      "ias": 3531,
      "Ġfaute": 3532,
      "Ġbill": 3533,
      "orc": 3534,
      "adm": 3535,
      "empl": 3536,
      "Ġadress": 3537,
      "Ġcouleur": 3538,
      "erez": 3539,
      "Ġfallut": 3540,
      "Ġbonnes": 3541,
      "ĠrÃ©pliqua": 3542,
      "Ġpier": 3543,
      "ĠpitiÃ©": 3544,
      "Ġsm": 3545,
      "Ġfirent": 3546,
      "Ġvide": 3547,
      "rire": 3548,
      "Ġsaw": 3549,
      "Ġcesse": 3550,
      "Ġrecul": 3551,
      "Ġintellig": 3552,
      "Ġconvict": 3553,
      "aim": 3554,
      "ina": 3555,
      "alais": 3556,
      "Ġmarcher": 3557,
      "Ġconnais": 3558,
      "Åĵbus": 3559,
      "Ġgardes": 3560,
      "Ġroom": 3561,
      "Ġdessus": 3562,
      "Ġvaisseau": 3563,
      "Ã©lev": 3564,
      "quelles": 3565,
      "Ġlever": 3566,
      "Ġappuy": 3567,
      "idiacre": 3568,
      "ene": 3569,
      "enaient": 3570,
      "aide": 3571,
      "ouille": 3572,
      "itre": 3573,
      "Ġhon": 3574,
      "embre": 3575,
      "Ġpassant": 3576,
      "ĠIn": 3577,
      "Ġportes": 3578,
      "ĠrÃ©serv": 3579,
      "ĠrÃ©sult": 3580,
      "ovary": 3581,
      "Ġmontrer": 3582,
      "And": 3583,
      "Ġfussent": 3584,
      "Ġarra": 3585,
      "Ġindiqu": 3586,
      "ĠquittÃ©": 3587,
      "Ġpareille": 3588,
      "Lorsque": 3589,
      "ĠespÃ¨ce": 3590,
      "),": 3591,
      "EN": 3592,
      "ypt": 3593,
      "Ġpir": 3594,
      "Ġsym": 3595,
      "Ġrid": 3596,
      "Ġhard": 3597,
      "Ġsaur": 3598,
      "ĠSans": 3599,
      "Ġdisp": 3600,
      "ĠfrÃ©qu": 3601,
      "Ġcourse": 3602,
      "Ġsoeur": 3603,
      "Ġconvain": 3604,
      "ĠgÃ©nÃ©ral": 3605,
      "entendis": 3606,
      "Ġgentleman": 3607,
      "ĠreprÃ©sent": 3608,
      "ER": 3609,
      "Ġignor": 3610,
      "inet": 3611,
      "arp": 3612,
      "Ġbarb": 3613,
      "ainte": 3614,
      "Ġye": 3615,
      "ĠarriÃ¨re": 3616,
      "Ġmanque": 3617,
      "Ġrepris": 3618,
      "Ġboutique": 3619,
      "cepter": 3620,
      "Ġeussent": 3621,
      "Ġguerre": 3622,
      "Deux": 3623,
      "but": 3624,
      "Ġmise": 3625,
      "Ġfid": 3626,
      "riez": 3627,
      "oncÃ©": 3628,
      "Ġsoudain": 3629,
      "Ġ18": 3630,
      "Ġbourgeois": 3631,
      "Ġdivers": 3632,
      "ĠmisÃ©rable": 3633,
      "Ġmerveille": 3634,
      "Am": 3635,
      "ogn": 3636,
      "Ġsable": 3637,
      "Ġpeuple": 3638,
      "Ġserai": 3639,
      "Ġcorral": 3640,
      "Ġsuper": 3641,
      "Ġextra": 3642,
      "eneral": 3643,
      "Ġcontempl": 3644,
      "histoire": 3645,
      "cles": 3646,
      "Ġfine": 3647,
      "aison": 3648,
      "auff": 3649,
      "chÃ©e": 3650,
      "ĠdÃ©n": 3651,
      "Ġproch": 3652,
      "Ġaime": 3653,
      "Ġfind": 3654,
      "Ġordinaire": 3655,
      "Ġhorrible": 3656,
      "Ġrecommand": 3657,
      "Angleterre": 3658,
      "Plus": 3659,
      "per": 3660,
      "phe": 3661,
      "Ġment": 3662,
      "arre": 3663,
      "ateurs": 3664,
      "oici": 3665,
      "Ġchasse": 3666,
      "imagin": 3667,
      "oirs": 3668,
      "Ġthin": 3669,
      "Ġdiss": 3670,
      "ertes": 3671,
      "Ġdevint": 3672,
      "Ġregarde": 3673,
      "Ġdemandait": 3674,
      "Ã©las": 3675,
      "Ġnothing": 3676,
      "Ġouverte": 3677,
      "Ġvitesse": 3678,
      "ĠcheminÃ©e": 3679,
      "ĠMajestÃ©": 3680,
      "iÃ©e": 3681,
      "sons": 3682,
      "Ġhun": 3683,
      "Ġgive": 3684,
      "Ġmaisons": 3685,
      "Ġcrut": 3686,
      "Ġentendait": 3687,
      "Ġpersonnes": 3688,
      "Ġtranquillement": 3689,
      "cinq": 3690,
      "field": 3691,
      "zaine": 3692,
      "Ġpai": 3693,
      "Ġmers": 3694,
      "Ġmett": 3695,
      "Ġtur": 3696,
      "ĠbÃªte": 3697,
      "Ġcomte": 3698,
      "--Â«": 3699,
      "Ġinutile": 3700,
      "onnÃ©e": 3701,
      "Ġgris": 3702,
      "Ġtook": 3703,
      "ĠfranÃ§": 3704,
      "Ġsuch": 3705,
      "assin": 3706,
      "Ġbeing": 3707,
      "Ġglac": 3708,
      "uments": 3709,
      "Ġroches": 3710,
      "Ġcuri": 3711,
      "ĠrÃ©vol": 3712,
      "What": 3713,
      "ound": 3714,
      "Ġmemb": 3715,
      "ĠvÃªte": 3716,
      "Ġjal": 3717,
      "adis": 3718,
      "ĠAyrton": 3719,
      "ĠBovary": 3720,
      "Ġsentir": 3721,
      "Ġvoile": 3722,
      "Ġquestions": 3723,
      "Ġsignal": 3724,
      "Ġargent": 3725,
      "ever": 3726,
      "mar": 3727,
      "Ġmettait": 3728,
      "Ġtim": 3729,
      "Ġboute": 3730,
      "omie": 3731,
      "Ġuns": 3732,
      "airement": 3733,
      "ivers": 3734,
      "ĠentiÃ¨rement": 3735,
      "Ġsouper": 3736,
      "Ġfaible": 3737,
      "Ġpublic": 3738,
      "ta": 3739,
      "Ġpil": 3740,
      "ĠpÃª": 3741,
      "Ġmurs": 3742,
      "Ġtante": 3743,
      "ares": 3744,
      "arri": 3745,
      "Ġride": 3746,
      "ourg": 3747,
      "ouvrit": 3748,
      "Ġwhere": 3749,
      "ĠBr": 3750,
      "Ġsonn": 3751,
      "Ã¨tre": 3752,
      "Ġprenant": 3753,
      "Ġconsc": 3754,
      "ĠtroisiÃ¨me": 3755,
      "Ġcondam": 3756,
      "flu": 3757,
      "Ġanimaux": 3758,
      "ĠdÃ©sespoir": 3759,
      "Ġparcour": 3760,
      "ĠagrÃ©able": 3761,
      "ĠUne": 3762,
      "quer": 3763,
      "Ġromp": 3764,
      "rimer": 3765,
      "Ġinfin": 3766,
      "ĠÃ©pouv": 3767,
      "minence": 3768,
      "Ġpauvres": 3769,
      "Ġnaturel": 3770,
      "ĠaperÃ§ut": 3771,
      "ĠcrÃ©ature": 3772,
      "ĠÃ©norme": 3773,
      "Ġer": 3774,
      "Ġback": 3775,
      "Ġavis": 3776,
      "Ġpriv": 3777,
      "Ġparfois": 3778,
      "Ġauparavant": 3779,
      "Ġsonger": 3780,
      "Ġtoo": 3781,
      "oyait": 3782,
      "Ġbrav": 3783,
      "ĠdÃ©sire": 3784,
      "Ġsecours": 3785,
      "Ġsuivi": 3786,
      "ĠjetÃ©": 3787,
      "Ġsouffr": 3788,
      "Ġexpression": 3789,
      "ĠprofondÃ©ment": 3790,
      "archidiacre": 3791,
      "Ġcuisine": 3792,
      "Cet": 3793,
      "Ġdigne": 3794,
      "Ġrare": 3795,
      "Ġpeuvent": 3796,
      "ĠÃ©b": 3797,
      "Ġpuisqu": 3798,
      "ĠintÃ©rÃªt": 3799,
      "Ãītienne": 3800,
      "Ġimpat": 3801,
      "Ġsoupir": 3802,
      "Ġembr": 3803,
      "Ġrapide": 3804,
      "beau": 3805,
      "hommes": 3806,
      "Ġut": 3807,
      "Ġcit": 3808,
      "rement": 3809,
      "Ġrues": 3810,
      "osph": 3811,
      "ĠLouis": 3812,
      "espÃ©r": 3813,
      "Ġattach": 3814,
      "Ã©criai": 3815,
      "ĠprÃ©cis": 3816,
      "Ġmuraille": 3817,
      "Ġnoirs": 3818,
      "ĠoubliÃ©": 3819,
      "Ġennem": 3820,
      "Ġais": 3821,
      "ensible": 3822,
      "ĠcÃ©d": 3823,
      "Ġquite": 3824,
      "agr": 3825,
      "aph": 3826,
      "Ġant": 3827,
      "ĠfraÃ®": 3828,
      "ĠGeneral": 3829,
      "Ġpuisse": 3830,
      "Ġaffir": 3831,
      "Ġconnaissait": 3832,
      "Ġmousquetaires": 3833,
      "Jamais": 3834,
      "Ġlueur": 3835,
      "Ġfi": 3836,
      "aps": 3837,
      "Ġonce": 3838,
      "Ġdiam": 3839,
      "dia": 3840,
      "oÃ»t": 3841,
      "Ġliqu": 3842,
      "Ġpot": 3843,
      "reau": 3844,
      "Ġmante": 3845,
      "Ġbag": 3846,
      "Ġbond": 3847,
      "Ġleft": 3848,
      "atte": 3849,
      "Ġgiv": 3850,
      "ĠÃ©tud": 3851,
      "Ġdut": 3852,
      "ĠSa": 3853,
      "Ġext": 3854,
      "Ġseraient": 3855,
      "ĠEmma": 3856,
      "Ġattendait": 3857,
      "Ġretir": 3858,
      "Ġsoulev": 3859,
      "Ġreprendre": 3860,
      "Ġsinc": 3861,
      "Ġsomm": 3862,
      "Ġlast": 3863,
      "Ġjur": 3864,
      "ason": 3865,
      "oland": 3866,
      "ĠLincoln": 3867,
      "Ġdevenait": 3868,
      "Ġcompter": 3869,
      "Ġlaissant": 3870,
      "ĠÃ©videmment": 3871,
      "ether": 3872,
      "Ġlampe": 3873,
      "Ġpersuad": 3874,
      "Ġselon": 3875,
      "arie": 3876,
      "ulg": 3877,
      "Ġarmes": 3878,
      "ĠJohn": 3879,
      "iÃ¨vre": 3880,
      "Ġrevoir": 3881,
      "ĠWickham": 3882,
      "Ġpoussa": 3883,
      "III": 3884,
      "Ġoreilles": 3885,
      "Ġaigu": 3886,
      "ize": 3887,
      "erve": 3888,
      "Ġfier": 3889,
      "agement": 3890,
      "ĠSignor": 3891,
      "Ġpartout": 3892,
      "espÃ¨re": 3893,
      "Ġcaf": 3894,
      "Ġterreur": 3895,
      "Ġmena": 3896,
      "habitude": 3897,
      "ua": 3898,
      "Ġmeu": 3899,
      "Ġetc": 3900,
      "user": 3901,
      "atique": 3902,
      "rib": 3903,
      "endroit": 3904,
      "allais": 3905,
      "Ġcourir": 3906,
      "Ġlongs": 3907,
      "istance": 3908,
      "ĠÃ©poque": 3909,
      "Ġfinit": 3910,
      "Ġauraient": 3911,
      "Ġobserver": 3912,
      "Ġmanquait": 3913,
      "Ġtriomp": 3914,
      "Ġlangue": 3915,
      "OU": 3916,
      "Rien": 3917,
      "sp": 3918,
      "Ġconsent": 3919,
      "Ġobst": 3920,
      "Ġenvie": 3921,
      "Ġmademoiselle": 3922,
      "Ã¨vre": 3923,
      "Ġvoisin": 3924,
      "ĠrÃ©cit": 3925,
      "Mr": 3926,
      "She": 3927,
      "rite": 3928,
      "Ġcul": 3929,
      "Ġmasse": 3930,
      "usse": 3931,
      "Ġparv": 3932,
      "Ã©rir": 3933,
      "Ġcapable": 3934,
      "Ġstill": 3935,
      "Ġsourd": 3936,
      "Ġtourna": 3937,
      "Ġrepas": 3938,
      "iendrait": 3939,
      "Ġviolence": 3940,
      "Ġtraits": 3941,
      "ĠmÃ©decin": 3942,
      "han": 3943,
      "ial": 3944,
      "pres": 3945,
      "ĠmÃ©m": 3946,
      "ercevoir": 3947,
      "auc": 3948,
      "ĠSe": 3949,
      "Ġportrait": 3950,
      "Ġappris": 3951,
      "Ġpareil": 3952,
      "ĠPhÅĵbus": 3953,
      "ĠpossÃ©d": 3954,
      "_.": 3955,
      "Ġrive": 3956,
      "aume": 3957,
      "Ġsame": 3958,
      "ĠAu": 3959,
      "Ġhere": 3960,
      "Ġsemblaient": 3961,
      "Ġconfiance": 3962,
      "ĠprÃ©cÃ©d": 3963,
      "Ġcontinuait": 3964,
      "Ġphil": 3965,
      "ules": 3966,
      "we": 3967,
      "Ġste": 3968,
      "isme": 3969,
      "Ġbu": 3970,
      "ĠbÃ©n": 3971,
      "ureur": 3972,
      "ĠrÃ©pand": 3973,
      "agnes": 3974,
      "Ġcarri": 3975,
      "Ġremettre": 3976,
      "Ġinstr": 3977,
      "Ġordres": 3978,
      "Ġgalop": 3979,
      "aquin": 3980,
      "Ġsauver": 3981,
      "Ġsacrif": 3982,
      "ĠmÃªmes": 3983,
      "Ġpromenade": 3984,
      "instant": 3985,
      "Ġmorceau": 3986,
      "ĠVerriÃ¨res": 3987,
      "Emma": 3988,
      "LE": 3989,
      "ĠmÃ©c": 3990,
      "Ġfo": 3991,
      "Ġboire": 3992,
      "Ã¨che": 3993,
      "Ã©pau": 3994,
      "Ġtouts": 3995,
      "Ġforces": 3996,
      "ĠEst": 3997,
      "ific": 3998,
      "Ġattendant": 3999,
      "Ġsuivit": 4000,
      "Ġseuls": 4001,
      "Ġfusil": 4002,
      "Ġventre": 4003,
      "ĠdÃ©cidÃ©": 4004,
      "obscuritÃ©": 4005,
      "'t": 4006,
      "oÃ¯": 4007,
      "Ġlande": 4008,
      "Ġaway": 4009,
      "Ġband": 4010,
      "agit": 4011,
      "emport": 4012,
      "ĠVal": 4013,
      "Ġterres": 4014,
      "oids": 4015,
      "Ġcombat": 4016,
      "Ġevening": 4017,
      "If": 4018,
      "Peut": 4019,
      "ĠâĢ¦": 4020,
      "Ġlaisse": 4021,
      "Ġpa": 4022,
      "ĠsÃ©v": 4023,
      "Ġmir": 4024,
      "Ġdet": 4025,
      "entrÃ©e": 4026,
      "ished": 4027,
      "ontÃ©": 4028,
      "Ġsiff": 4029,
      "Ġexac": 4030,
      "ople": 4031,
      "ieuses": 4032,
      "Ġtrouvaient": 4033,
      "Ġcolon": 4034,
      "ipage": 4035,
      "Ġapproch": 4036,
      "other": 4037,
      "Ġlutte": 4038,
      "ĠMaheude": 4039,
      "Ġthrough": 4040,
      "ĠimmÃ©diatement": 4041,
      "jour": 4042,
      "ouest": 4043,
      "ase": 4044,
      "Ã¨tement": 4045,
      "rique": 4046,
      "adress": 4047,
      "ĠPuis": 4048,
      "Ġattent": 4049,
      "Ġparlant": 4050,
      "Ã©lic": 4051,
      "Ġminute": 4052,
      "erville": 4053,
      "Ġconduire": 4054,
      "Ġoppos": 4055,
      "Ġcroyez": 4056,
      "Ġretourna": 4057,
      "ĠÃ¢ge": 4058,
      "Ġfew": 4059,
      "occasion": 4060,
      "Ġbattre": 4061,
      "ĠdÃ©couvrir": 4062,
      "Ġfleurs": 4063,
      "ĠPlanchet": 4064,
      "OcÃ©an": 4065,
      "Ġpur": 4066,
      "elt": 4067,
      "aufr": 4068,
      "ionn": 4069,
      "Ġcompos": 4070,
      "Ġthose": 4071,
      "Ġrepouss": 4072,
      "Ġgarder": 4073,
      "Ġlady": 4074,
      "Mes": 4075,
      "ax": 4076,
      "anit": 4077,
      "Ġtendre": 4078,
      "Ġname": 4079,
      "Ġnaufr": 4080,
      "eulement": 4081,
      "ĠCela": 4082,
      "oreille": 4083,
      "ĠRou": 4084,
      "ĠRaquin": 4085,
      "ĠrestÃ©": 4086,
      "Ġmind": 4087,
      "Ġtournant": 4088,
      "ucking": 4089,
      "uckingham": 4090,
      "Elles": 4091,
      "mÃª": 4092,
      "Ã«": 4093,
      "onÃ§a": 4094,
      "iteur": 4095,
      "tez": 4096,
      "Ġgrim": 4097,
      "Ġprol": 4098,
      "oide": 4099,
      "agissait": 4100,
      "allÃ©e": 4101,
      "Ġsemaines": 4102,
      "Ġaffect": 4103,
      "Ġrenvers": 4104,
      "Ġdomin": 4105,
      "ĠÃ©galement": 4106,
      "ollins": 4107,
      "Ġpierres": 4108,
      "gie": 4109,
      "Ġpoids": 4110,
      "inqui": 4111,
      "ĠfÃ¢": 4112,
      "Ġfosse": 4113,
      "Ġviens": 4114,
      "oral": 4115,
      "Ġrapproch": 4116,
      "Ġonze": 4117,
      "Ġamie": 4118,
      "ĠNotre": 4119,
      "Quoi": 4120,
      "ĠTop": 4121,
      "Ġderriere": 4122,
      "embr": 4123,
      "riture": 4124,
      "ibles": 4125,
      "Ġinterromp": 4126,
      "Ġcroyais": 4127,
      "Ġtrouble": 4128,
      "Ġanimal": 4129,
      "Ġvague": 4130,
      "Ġefforts": 4131,
      "Ġanglais": 4132,
      "!...": 4133,
      "OÃ¹": 4134,
      "sou": 4135,
      "Ġsoyez": 4136,
      "ouÃ©": 4137,
      "anitÃ©": 4138,
      "Ġfabri": 4139,
      "ĠvÃªt": 4140,
      "Ġparents": 4141,
      "avent": 4142,
      "Ġplain": 4143,
      "endredi": 4144,
      "ĠtempÃ©r": 4145,
      "etty": 4146,
      "Ġcherchait": 4147,
      "Ġderniers": 4148,
      "ĠQuasimodo": 4149,
      "ĠrÃ©gul": 4150,
      "Ġdevenu": 4151,
      "Ġcirconstances": 4152,
      "Dame": 4153,
      "hiver": 4154,
      "pir": 4155,
      "Ġsab": 4156,
      "Ġmang": 4157,
      "Ġruis": 4158,
      "ĠentiÃ¨re": 4159,
      "Ġexcept": 4160,
      "Ġmarchait": 4161,
      "Ġhead": 4162,
      "assa": 4163,
      "cieux": 4164,
      "ĠTout": 4165,
      "Ġsentais": 4166,
      "Ã©mitÃ©": 4167,
      "Ġpayer": 4168,
      "ĠWinter": 4169,
      "ĠvolontÃ©": 4170,
      "Ġcadav": 4171,
      "Ġsuppose": 4172,
      "Ou": 4173,
      "Ġvaut": 4174,
      "Ġhonte": 4175,
      "Ã©tabl": 4176,
      "Ġplate": 4177,
      "ĠrÃ©pÃ©tait": 4178,
      "ĠÃ©cras": 4179,
      "Ãīt": 4180,
      "Ġjouer": 4181,
      "ĠentraÃ®n": 4182,
      "Ġfolle": 4183,
      "pit": 4184,
      "Ġeur": 4185,
      "Ġsir": 4186,
      "Ġroy": 4187,
      "Ġlesquels": 4188,
      "Ġplong": 4189,
      "ĠMin": 4190,
      "Ã©parer": 4191,
      "Ġtoil": 4192,
      "oyons": 4193,
      "iditÃ©": 4194,
      "Ġdevenir": 4195,
      "ĠDu": 4196,
      "ifice": 4197,
      "Quelle": 4198,
      "Ġmontait": 4199,
      "Ġvive": 4200,
      "Ġservi": 4201,
      "onseigneur": 4202,
      "Ġgalerie": 4203,
      "AN": 4204,
      "til": 4205,
      "zo": 4206,
      "ĠsantÃ©": 4207,
      "oure": 4208,
      "ouche": 4209,
      "onÃ§ait": 4210,
      "anÃ§ait": 4211,
      "ĠmÃ©ch": 4212,
      "ĠgÃ©": 4213,
      "Ġgorge": 4214,
      "Ġprie": 4215,
      "avenir": 4216,
      "seign": 4217,
      "Ġwhom": 4218,
      "venu": 4219,
      "Ġtoutefois": 4220,
      "ĠscÃ¨ne": 4221,
      "Ġhumaine": 4222,
      "ĠdÃ©liv": 4223,
      "ĠLydia": 4224,
      "Ġmembres": 4225,
      "Ġconscience": 4226,
      "Ġphilos": 4227,
      "John": 4228,
      "aimer": 4229,
      "Ãªque": 4230,
      "Ġold": 4231,
      "ĠÃ©te": 4232,
      "ctions": 4233,
      "Ġvoyais": 4234,
      "Ġparla": 4235,
      "Ġmontagne": 4236,
      "ĠtuÃ©": 4237,
      "Ġaccompl": 4238,
      "Ġfauteu": 4239,
      "ĠÃīminence": 4240,
      "Ġcauser": 4241,
      "Ġcraindre": 4242,
      "ĠrÃ©pÃ©ta": 4243,
      "fluence": 4244,
      "ĠmÃ©moire": 4245,
      "gment": 4246,
      "uill": 4247,
      "leurs": 4248,
      "omais": 4249,
      "Ġfrais": 4250,
      "Ġfroide": 4251,
      "ĠrÃ©uss": 4252,
      "ĠÃ©criv": 4253,
      "Ġrecouv": 4254,
      "ĠaimÃ©": 4255,
      "Ġaffection": 4256,
      "Ġconnu": 4257,
      "Ġouvrit": 4258,
      "ĠprÃ©caut": 4259,
      "Ġphys": 4260,
      "Ġrenf": 4261,
      "Ġproduis": 4262,
      "Ġfaibles": 4263,
      "Ġsatisfaction": 4264,
      "An": 4265,
      "den": 4266,
      "Ġpous": 4267,
      "iness": 4268,
      "urant": 4269,
      "ĠÃ©touff": 4270,
      "Ġwoman": 4271,
      "iger": 4272,
      "siÃ¨re": 4273,
      "sive": 4274,
      "Ġentour": 4275,
      "Ġexemple": 4276,
      "Ġasked": 4277,
      "Ġfera": 4278,
      "aret": 4279,
      "ĠpremiÃ¨res": 4280,
      "Ġconditions": 4281,
      "Ġrentrer": 4282,
      "ĠHenry": 4283,
      "ĠvÃªtements": 4284,
      "lo": 4285,
      "ĠÃ§": 4286,
      "ĠlÃ¢": 4287,
      "Ġaveu": 4288,
      "Ã©cout": 4289,
      "ĠÃ©d": 4290,
      "Ġretur": 4291,
      "Ġsemblable": 4292,
      "Ġfacilement": 4293,
      "Ġpuits": 4294,
      "ĠÃ©tonnÃ©": 4295,
      "Ġpla": 4296,
      "iece": 4297,
      "ĠPierre": 4298,
      "Ġjustement": 4299,
      "Ã©ric": 4300,
      "Ġcacher": 4301,
      "ĠobÃ©": 4302,
      "Ġdays": 4303,
      "ĠtÃ©moign": 4304,
      "Ġmanteau": 4305,
      "Ġphysion": 4306,
      "istr": 4307,
      "elier": 4308,
      "ater": 4309,
      "ĠCompagn": 4310,
      "aissaient": 4311,
      "Ġconserv": 4312,
      "Ġcertains": 4313,
      "Ġpropri": 4314,
      "Ġprofondeur": 4315,
      "Ġmalheureuse": 4316,
      "Ġrouges": 4317,
      "ĠMarchesa": 4318,
      "ES": 4319,
      "moins": 4320,
      "Ġsure": 4321,
      "Ġmas": 4322,
      "Ġquat": 4323,
      "isÃ©": 4324,
      "ĠparaÃ®tre": 4325,
      "Ġserez": 4326,
      "ĠMonseigneur": 4327,
      "ĠSon": 4328,
      "ĠAn": 4329,
      "ĠNap": 4330,
      "Ġperf": 4331,
      "Ġposte": 4332,
      "âĢ¦.": 4333,
      "Ġcharbon": 4334,
      "ĠIls": 4335,
      "Ġindiff": 4336,
      "Ġrendez": 4337,
      "arcation": 4338,
      "aperÃ§us": 4339,
      "Monsieur": 4340,
      "Pas": 4341,
      "mosph": 4342,
      "rist": 4343,
      "vant": 4344,
      "Ġdoul": 4345,
      "Ġpiqu": 4346,
      "Ġcat": 4347,
      "quis": 4348,
      "ĠDans": 4349,
      "Ġamen": 4350,
      "Ġcell": 4351,
      "Ġremar": 4352,
      "There": 4353,
      "Ġhorse": 4354,
      "Ġaccept": 4355,
      "Ġdessin": 4356,
      "Ã©anmoins": 4357,
      "Ġsoldats": 4358,
      "ĠsiÃ¨cle": 4359,
      "ĠcafÃ©": 4360,
      "Ġcolonel": 4361,
      "men": 4362,
      "ru": 4363,
      "Â°": 4364,
      "oue": 4365,
      "ĠhÃ¢te": 4366,
      "Ã¨de": 4367,
      "Ġinj": 4368,
      "Ġword": 4369,
      "ĠRod": 4370,
      "Ġcourut": 4371,
      "Ġcorde": 4372,
      "Ġpromis": 4373,
      "Ġscience": 4374,
      "Ġcalcul": 4375,
      "Ġperdue": 4376,
      "ĠlÃ©ger": 4377,
      "Ġmeilleur": 4378,
      "Ġrayons": 4379,
      "Ġrencontrer": 4380,
      "ĠcuriositÃ©": 4381,
      "Gr": 4382,
      "Ġdon": 4383,
      "Ġsoign": 4384,
      "Ã©tant": 4385,
      "Ġreten": 4386,
      "Ġown": 4387,
      "ettez": 4388,
      "ĠBuckingham": 4389,
      "ĠdemandÃ©": 4390,
      "Ġvieill": 4391,
      "Ġmontagnes": 4392,
      "Ġreconnut": 4393,
      "Ġsouffle": 4394,
      "Ġbesogne": 4395,
      "Vers": 4396,
      "ĠÃ®": 4397,
      "Ġtab": 4398,
      "Ġtold": 4399,
      "Ġlect": 4400,
      "Ġhaine": 4401,
      "Ġrepar": 4402,
      "Ġnev": 4403,
      "Ġtress": 4404,
      "ĠChe": 4405,
      "sib": 4406,
      "Ġgranit": 4407,
      "Ġtoit": 4408,
      "illons": 4409,
      "Ġvenez": 4410,
      "Ġmontra": 4411,
      "Ġcried": 4412,
      "Ġenvers": 4413,
      "Ġcomprit": 4414,
      "Ġglob": 4415,
      "Ġlaquais": 4416,
      "Ġbataille": 4417,
      "Ġpoissons": 4418,
      "ĠfumÃ©e": 4419,
      "ĠMontsou": 4420,
      "ĠFranÃ§": 4421,
      "ĠfranÃ§ais": 4422,
      "AR": 4423,
      "Harbert": 4424,
      "nÃ©e": 4425,
      "vingt": 4426,
      "Ġcout": 4427,
      "Ġtre": 4428,
      "itÃ©e": 4429,
      "Ġban": 4430,
      "treet": 4431,
      "Ġneige": 4432,
      "seau": 4433,
      "Ġtrah": 4434,
      "issent": 4435,
      "ĠrÃ©ellement": 4436,
      "Ã©rique": 4437,
      "Ġtenant": 4438,
      "ĠcÃ´tÃ©s": 4439,
      "Ġrappelle": 4440,
      "Allons": 4441,
      "Ġpharm": 4442,
      "Ġgrosses": 4443,
      "ĠÃ©vident": 4444,
      "ĠcomplÃ¨tement": 4445,
      "nglais": 4446,
      "Ġsatisfait": 4447,
      "Ġprobable": 4448,
      "ĠquantitÃ©": 4449,
      "Ġmouch": 4450,
      "Ġpharmac": 4451,
      "Pencroff": 4452,
      "dans": 4453,
      "most": 4454,
      "Ġdange": 4455,
      "Ġpun": 4456,
      "Ġsim": 4457,
      "rel": 4458,
      "Ġtira": 4459,
      "isions": 4460,
      "Ġvole": 4461,
      "Ã¨ge": 4462,
      "osc": 4463,
      "ull": 4464,
      "Ġoutre": 4465,
      "Ġattr": 4466,
      "iments": 4467,
      "ĠdÃ©tr": 4468,
      "Ġlevant": 4469,
      "Ġrevenait": 4470,
      "Ġreconnaissance": 4471,
      "ĠhonnÃªte": 4472,
      "Ġpaix": 4473,
      "ĠÃ§Ãł": 4474,
      "ĠCompagnie": 4475,
      "vue": 4476,
      "Ã©h": 4477,
      "Ġtell": 4478,
      "Ġaud": 4479,
      "ĠÃ©tabl": 4480,
      "ained": 4481,
      "Ġchagr": 4482,
      "artin": 4483,
      "Ġremit": 4484,
      "Ġouvriers": 4485,
      "Ġcurieux": 4486,
      "ount": 4487,
      "Ã©paule": 4488,
      "!âĢ¦": 4489,
      "Dieu": 4490,
      "ront": 4491,
      "Ġfolie": 4492,
      "Ġrage": 4493,
      "ĠhÃ¢t": 4494,
      "irai": 4495,
      "rig": 4496,
      "acÃ©": 4497,
      "assait": 4498,
      "ancÃ©": 4499,
      "Ġcommiss": 4500,
      "Ġaimait": 4501,
      "Ġmonth": 4502,
      "Ġcherch": 4503,
      "Ġassise": 4504,
      "accord": 4505,
      "Ġtourner": 4506,
      "ohÃ©m": 4507,
      "Ġvertu": 4508,
      "ĠmystÃ©ri": 4509,
      "Ġfaudrait": 4510,
      "ermin": 4511,
      "Ġfelt": 4512,
      "Ġhier": 4513,
      "ĠAd": 4514,
      "opul": 4515,
      "Ġamus": 4516,
      "Ġretard": 4517,
      "aleine": 4518,
      "ogue": 4519,
      "Ġvolcan": 4520,
      "Ġglace": 4521,
      "Ġcentre": 4522,
      "Ġjoues": 4523,
      "Ġmoyens": 4524,
      "Ġfaveur": 4525,
      "Ġcharmante": 4526,
      "ĠchargÃ©": 4527,
      "Ġfatigue": 4528,
      "Ġfriend": 4529,
      "ĠMarchese": 4530,
      "Bien": 4531,
      "huit": 4532,
      "vaque": 4533,
      "Ġide": 4534,
      "Ġpeux": 4535,
      "Ġsaint": 4536,
      "oureuse": 4537,
      "Ġmaig": 4538,
      "Ġdegr": 4539,
      "Ġhaving": 4540,
      "ĠchÃ¨re": 4541,
      "ĠfrÃ©m": 4542,
      "Ġchef": 4543,
      "ĠIt": 4544,
      "Ġretent": 4545,
      "attendait": 4546,
      "Ġmyself": 4547,
      "ĠpÃ©nible": 4548,
      "ways": 4549,
      "Ġpoudre": 4550,
      "Ġphrase": 4551,
      "Ġclef": 4552,
      ",Â»": 4553,
      "Mil": 4554,
      "ken": 4555,
      "Ġfre": 4556,
      "Ġenr": 4557,
      "Ġprouv": 4558,
      "ĠÃ©tern": 4559,
      "agrÃ©": 4560,
      "Ġwind": 4561,
      "onnant": 4562,
      "Ã©rait": 4563,
      "ĠÃ©lect": 4564,
      "Ġappl": 4565,
      "Ġchem": 4566,
      "ĠrÃ©pondait": 4567,
      "Ġclasse": 4568,
      "drez": 4569,
      "Ġpeople": 4570,
      "ĠprÃ©occup": 4571,
      "Ġdescendit": 4572,
      "Ġdisposition": 4573,
      "Ġsouvenirs": 4574,
      "Ġmagnifique": 4575,
      "Ġlignes": 4576,
      "Ġcer": 4577,
      "isse": 4578,
      "Ġrecev": 4579,
      "Ġprudence": 4580,
      "Ġdistr": 4581,
      "empÃªcher": 4582,
      "Ġpartit": 4583,
      "Ġsoum": 4584,
      "Ġautrement": 4585,
      "Ġsemblables": 4586,
      "Ġcontinuer": 4587,
      "Ġsouffrir": 4588,
      "Ġtoile": 4589,
      "Ġcabinet": 4590,
      "ĠsÃ©rieux": 4591,
      "Ġsinon": 4592,
      "Ġconvainc": 4593,
      "ey": 4594,
      "toi": 4595,
      "Ãĩ": 4596,
      "Ġ3": 4597,
      "Ġlu": 4598,
      "Ġling": 4599,
      "Ġpend": 4600,
      "Ġqueu": 4601,
      "inrent": 4602,
      "orb": 4603,
      "Ġgaz": 4604,
      "Ġod": 4605,
      "Ġchanger": 4606,
      "Ã©ritÃ©": 4607,
      "ĠdÃ©d": 4608,
      "ĠAngleterre": 4609,
      "trod": 4610,
      "istait": 4611,
      "Ġpost": 4612,
      "Ġvoie": 4613,
      "Ġrendu": 4614,
      "Ġpropres": 4615,
      "Ġprodig": 4616,
      "ĠcurÃ©": 4617,
      "ĠHenne": 4618,
      "ĠPourquoi": 4619,
      "Moi": 4620,
      "oches": 4621,
      "oke": 4622,
      "Ġlun": 4623,
      "Ġcost": 4624,
      "Ġbande": 4625,
      "ĠMerc": 4626,
      "Ġdemie": 4627,
      "Ġwhole": 4628,
      "ailli": 4629,
      "Ġtourment": 4630,
      "iendra": 4631,
      "Ġpuissance": 4632,
      "ĠdegrÃ©s": 4633,
      "ĠHennebeau": 4634,
      "die": 4635,
      "mand": 4636,
      "wards": 4637,
      "Ġlim": 4638,
      "Ġdeath": 4639,
      "Ġvont": 4640,
      "Ġvif": 4641,
      "ores": 4642,
      "tex": 4643,
      "Ġrose": 4644,
      "urope": 4645,
      "ative": 4646,
      "aul": 4647,
      "Ġpromp": 4648,
      "illÃ©": 4649,
      "orer": 4650,
      "Ġtombait": 4651,
      "Ġsilenc": 4652,
      "ĠdÃ©velopp": 4653,
      "Ġimagination": 4654,
      "Ġvapeur": 4655,
      "Ġphysionomie": 4656,
      "ĠQui": 4657,
      "quÃ©": 4658,
      "Ġtaill": 4659,
      "inv": 4660,
      "itant": 4661,
      "ĠbontÃ©": 4662,
      "ash": 4663,
      "Ġgib": 4664,
      "Ġwords": 4665,
      "ĠallÃ©": 4666,
      "Ġmonta": 4667,
      "Ġsortait": 4668,
      "Ġbouill": 4669,
      "Ġrendit": 4670,
      "Ġespoir": 4671,
      "Ġsangl": 4672,
      "ĠClaude": 4673,
      "Ġvoyageurs": 4674,
      "IS": 4675,
      "rÃ©es": 4676,
      "Ġpure": 4677,
      "erais": 4678,
      "Ġball": 4679,
      "omin": 4680,
      "usc": 4681,
      "Ġchoc": 4682,
      "Ġchute": 4683,
      "Ã©cole": 4684,
      "acer": 4685,
      "ĠPro": 4686,
      "oya": 4687,
      "Ġentier": 4688,
      "Ġbrouill": 4689,
      "Ġarch": 4690,
      "bli": 4691,
      "Ġdevais": 4692,
      "issements": 4693,
      "plend": 4694,
      "ĠRob": 4695,
      "Laurent": 4696,
      "Ġpensais": 4697,
      "Ġtravaux": 4698,
      "Ġcouche": 4699,
      "Ġvivant": 4700,
      "Ġsuivait": 4701,
      "Ġraisons": 4702,
      "Ġdoor": 4703,
      "Ġretrait": 4704,
      "Ġpersonnage": 4705,
      "Ġnuages": 4706,
      "ĠblessÃ©": 4707,
      "Ġfauteuil": 4708,
      "Milady": 4709,
      "Ġcoute": 4710,
      "Ġtas": 4711,
      "Ġnerv": 4712,
      "ĠrÃ´le": 4713,
      "alitÃ©s": 4714,
      "ĠÃ©tais": 4715,
      "eci": 4716,
      "imm": 4717,
      "sier": 4718,
      "ico": 4719,
      "Ġprojets": 4720,
      "oupes": 4721,
      "autant": 4722,
      "angers": 4723,
      "Ġabond": 4724,
      "attendre": 4725,
      "Ġouvrir": 4726,
      "Ġrendait": 4727,
      "Ġrefer": 4728,
      "Ġrevenu": 4729,
      "Ġhumeur": 4730,
      "Ġopinion": 4731,
      "Ġpensez": 4732,
      "Ġdomestiques": 4733,
      "Ġtoilette": 4734,
      ".--": 4735,
      "Ġmuch": 4736,
      "Ġfoyer": 4737,
      "ilom": 4738,
      "Ġprince": 4739,
      "Ġdesse": 4740,
      "Ġanx": 4741,
      "Ġparties": 4742,
      "Ġmanoeu": 4743,
      "Ġregardai": 4744,
      "ĠJehan": 4745,
      "Ġpensai": 4746,
      "Ġadd": 4747,
      "Ġchamps": 4748,
      "Ġsupporter": 4749,
      "ĠnÃ©cessitÃ©": 4750,
      "Ġaimable": 4751,
      "Ġaventure": 4752,
      "Ayrton": 4753,
      "Darcy": 4754,
      "Voici": 4755,
      "Ġpopul": 4756,
      "Ġsl": 4757,
      "asp": 4758,
      "Ġrade": 4759,
      "Ġprud": 4760,
      "alors": 4761,
      "essie": 4762,
      "ĠÃ©crire": 4763,
      "inture": 4764,
      "Ġdirec": 4765,
      "ĠÃ©pous": 4766,
      "Ġmontrait": 4767,
      "Ġcoun": 4768,
      "Ġmerc": 4769,
      "Ġassur": 4770,
      "ĠspÃ©c": 4771,
      "ĠQuel": 4772,
      "ĠdÃ©barqu": 4773,
      "Ġseemed": 4774,
      "Ġdrap": 4775,
      "ĠmÃ©lanc": 4776,
      "Ġveuve": 4777,
      "onfl": 4778,
      "Ġtours": 4779,
      "ĠbohÃ©m": 4780,
      "Ġjadis": 4781,
      "orable": 4782,
      "Ġill": 4783,
      "----": 4784,
      "neau": 4785,
      "ophe": 4786,
      "ĠHomais": 4787,
      "Ġsoon": 4788,
      "ĠdÃ©tourn": 4789,
      "Ġgarn": 4790,
      "Ġcomplet": 4791,
      "ĠLevaque": 4792,
      "Ġrentra": 4793,
      "Ġmanquer": 4794,
      "Ġredout": 4795,
      "effr": 4796,
      "ĠrÃªve": 4797,
      "Ġcomptait": 4798,
      "Ġpistol": 4799,
      "Ad": 4800,
      "IV": 4801,
      "Ġmouill": 4802,
      "Ġfather": 4803,
      "ormes": 4804,
      "Ġhigh": 4805,
      "Ġgave": 4806,
      "olphe": 4807,
      "Ã»te": 4808,
      "Ġpartis": 4809,
      "Ġaccus": 4810,
      "ĠintÃ©ress": 4811,
      "ĠdÃ©pos": 4812,
      "ĠsupÃ©rieure": 4813,
      "Ġhabits": 4814,
      "Ġarrive": 4815,
      "ĠrÃ©solution": 4816,
      "ĠsuccÃ¨s": 4817,
      "ĠrÃ©vÃ©l": 4818,
      "Toutefois": 4819,
      "ĠprÃ©cisÃ©ment": 4820,
      "Ġsommet": 4821,
      "DÃ¨s": 4822,
      "Ġpais": 4823,
      "reg": 4824,
      "ery": 4825,
      "ĠfiÃ¨vre": 4826,
      "ild": 4827,
      "Ġbanc": 4828,
      "ouvrir": 4829,
      "Ġextre": 4830,
      "Ġentrepr": 4831,
      "asseoir": 4832,
      "Ġsalut": 4833,
      "ĠdÃ©barr": 4834,
      "ĠdÃ©faut": 4835,
      "ĠannÃ©e": 4836,
      "iana": 4837,
      "ĠrÃ©flexions": 4838,
      "Ġextraordinaire": 4839,
      "Ġglobe": 4840,
      "Ġqueue": 4841,
      "Pr": 4842,
      "Ã©te": 4843,
      "Ġtels": 4844,
      "ĠvÃ©c": 4845,
      "elui": 4846,
      "ory": 4847,
      "ĠplaÃ®t": 4848,
      "Ġchat": 4849,
      "Ġgrond": 4850,
      "ĠdÃ©sert": 4851,
      "existence": 4852,
      "Ġfinir": 4853,
      "Ġsortes": 4854,
      "Ġtombe": 4855,
      "ĠdÃ©termin": 4856,
      "Ġpoor": 4857,
      "Toutes": 4858,
      "Ġoublier": 4859,
      "ĠrÃªv": 4860,
      "ĠpiÃ¨ces": 4861,
      "yptienne": 4862,
      "mÃªmes": 4863,
      "ĠMercy": 4864,
      "haps": 4865,
      "ĠpÃ©r": 4866,
      "Ġsince": 4867,
      "once": 4868,
      "reaux": 4869,
      "Ġmam": 4870,
      "Ġnat": 4871,
      "oration": 4872,
      "Ġroc": 4873,
      "usque": 4874,
      "Ġrequ": 4875,
      "Ġretenir": 4876,
      "avance": 4877,
      "Ġchauss": 4878,
      "utation": 4879,
      "ape": 4880,
      "Ã©cile": 4881,
      "Ã©rÃ©e": 4882,
      "ĠSauv": 4883,
      "outez": 4884,
      "ayer": 4885,
      "Ġvenge": 4886,
      "Ġterri": 4887,
      "Ġremords": 4888,
      "espoir": 4889,
      "Ġadv": 4890,
      "ĠdÃ©pens": 4891,
      "ĠsupÃ©rieur": 4892,
      "inconnu": 4893,
      "ĠQuand": 4894,
      "Ġrepent": 4895,
      "Ġkne": 4896,
      "Ġpoussait": 4897,
      "ĠdÃ©couvert": 4898,
      "ĠsÃ©rieusement": 4899,
      "Ġraconter": 4900,
      "Ġjuger": 4901,
      "Ġneveu": 4902,
      "Ġwindow": 4903,
      ",--": 4904,
      "IN": 4905,
      "acher": 4906,
      "ĠZ": 4907,
      "ĠâĢĶ": 4908,
      "Ġtonn": 4909,
      "Ġfoss": 4910,
      "urst": 4911,
      "Ġenlev": 4912,
      "iration": 4913,
      "ĠÃ©tiez": 4914,
      "imul": 4915,
      "ageait": 4916,
      "ĠVoilÃł": 4917,
      "Ġcompar": 4918,
      "ĠportÃ©e": 4919,
      "arrÃªter": 4920,
      "Ġblanch": 4921,
      "Ġboulev": 4922,
      "ĠsoupÃ§": 4923,
      "Ġsubit": 4924,
      "Ġexpliqu": 4925,
      "Ġletter": 4926,
      "Ġsongeait": 4927,
      "rions": 4928,
      "Ġdra": 4929,
      "itaire": 4930,
      "Ġbure": 4931,
      "Ġriant": 4932,
      "alt": 4933,
      "Ġplomb": 4934,
      "ĠchÃ¨vre": 4935,
      "ical": 4936,
      "ĠPas": 4937,
      "Ġbranches": 4938,
      "ongo": 4939,
      "Ġobjets": 4940,
      "aurai": 4941,
      "ĠenvoyÃ©": 4942,
      "Ġsignif": 4943,
      "ĠsÃ»re": 4944,
      "Ġquitta": 4945,
      "Ġmarchand": 4946,
      "Ġdormir": 4947,
      "ĠmÃ©tier": 4948,
      "ĠdÃ©chir": 4949,
      "ĠpavÃ©": 4950,
      "Ġinnoc": 4951,
      "Mal": 4952,
      "fax": 4953,
      "uement": 4954,
      "ĠtÃªtes": 4955,
      "Ġlab": 4956,
      "Ã¨nes": 4957,
      "Ġplat": 4958,
      "ĠMort": 4959,
      "ĠgrÃ¨ve": 4960,
      "Ġalways": 4961,
      "Ã®te": 4962,
      "Ġapercev": 4963,
      "ĠJac": 4964,
      "Ġcourait": 4965,
      "Ġretirer": 4966,
      "Ġferai": 4967,
      "Ġvouloir": 4968,
      "Ġaccord": 4969,
      "dred": 4970,
      "Ġorder": 4971,
      "Ġinterv": 4972,
      "enfer": 4973,
      "That": 4974,
      "Ġfeet": 4975,
      "Ġvalet": 4976,
      "Ġdurant": 4977,
      "Ġsouliers": 4978,
      "conque": 4979,
      "midi": 4980,
      "pes": 4981,
      "uÃ©e": 4982,
      "xc": 4983,
      "Ġsoins": 4984,
      "Ġaction": 4985,
      "Ġmienne": 4986,
      "oritÃ©": 4987,
      "Ġtrace": 4988,
      "ĠMadame": 4989,
      "imer": 4990,
      "blement": 4991,
      "ĠFair": 4992,
      "Ġamoureux": 4993,
      "Ġcriait": 4994,
      "Ġvivait": 4995,
      "Ġcomprends": 4996,
      "Ġcanal": 4997,
      "Ġansw": 4998,
      "Ġfusse": 4999,
      "Ġparticulier": 5000,
      "Ġpardon": 5001,
      "ĠobligÃ©": 5002,
      "ĠarrÃªtÃ©": 5003,
      "ĠrÃ©sultat": 5004,
      "Ġyears": 5005,
      "Ġexactement": 5006,
      "Ġeurent": 5007,
      "ĠFairfax": 5008,
      "XX": 5009,
      "ll": 5010,
      "aies": 5011,
      "ouch": 5012,
      "uste": 5013,
      "Ġrejet": 5014,
      "ceiv": 5015,
      "Ġtrist": 5016,
      "Ġsurveill": 5017,
      "neaux": 5018,
      "ĠSire": 5019,
      "ĠLuc": 5020,
      "ĠAm": 5021,
      "ĠBel": 5022,
      "Ġamb": 5023,
      "ĠRoland": 5024,
      "Ġenfer": 5025,
      "Ġtoucher": 5026,
      "Ġportant": 5027,
      "Ġflott": 5028,
      "Ġinstinct": 5029,
      "ĠdÃ©tach": 5030,
      "Ġhautes": 5031,
      "ĠprÃ©tex": 5032,
      "Ġfeuilles": 5033,
      "Ġcommencement": 5034,
      "ĠconsidÃ©rable": 5035,
      "Avec": 5036,
      "ouda": 5037,
      "Ġcirconstance": 5038,
      "Ġlarges": 5039,
      "Ġhundred": 5040,
      "sibilitÃ©": 5041,
      "ĠsÃ©d": 5042,
      "Ġsienne": 5043,
      "Ġmout": 5044,
      "ĠqualitÃ©": 5045,
      "Ġfuir": 5046,
      "Ġnight": 5047,
      "Ġhonneur": 5048,
      "Ġhauss": 5049,
      "Ġnew": 5050,
      "Ġchand": 5051,
      "import": 5052,
      "nez": 5053,
      "icule": 5054,
      "Ã§aient": 5055,
      "ĠDongo": 5056,
      "Ġseuil": 5057,
      "ĠdÃ©couverte": 5058,
      "rock": 5059,
      "Ġsourc": 5060,
      "Ġsouriant": 5061,
      "Ġround": 5062,
      "Ġdisparut": 5063,
      "Ġirr": 5064,
      "Ġspeak": 5065,
      "Ġflamme": 5066,
      "Ġgiven": 5067,
      "ĠsÃ©vÃ¨re": 5068,
      "lÃ©e": 5069,
      "Ġloint": 5070,
      "Ġpic": 5071,
      "ĠtÃ©n": 5072,
      "Ġjure": 5073,
      "alles": 5074,
      "ript": 5075,
      "Ġbruy": 5076,
      "Ġexpos": 5077,
      "Ġamant": 5078,
      "Ġremerc": 5079,
      "rale": 5080,
      "Ġpoints": 5081,
      "Ġcrier": 5082,
      "Ġmatel": 5083,
      "ochers": 5084,
      "Ġmorts": 5085,
      "Ġapprendre": 5086,
      "Ġimpression": 5087,
      "Ġopen": 5088,
      "Ġproduit": 5089,
      "Ġmouvements": 5090,
      "Ġvalait": 5091,
      "Ġterrain": 5092,
      "Ġcadavre": 5093,
      "Ġcommissaire": 5094,
      "Ãĩa": 5095,
      "ysi": 5096,
      "erons": 5097,
      "ĠtÃ¢": 5098,
      "entour": 5099,
      "ĠhÃ´t": 5100,
      "Ġhouse": 5101,
      "Ġdesp": 5102,
      "oisse": 5103,
      "icier": 5104,
      "ĠPac": 5105,
      "ĠBas": 5106,
      "ĠJup": 5107,
      "Ġcoron": 5108,
      "Ġchambres": 5109,
      "Ġpleas": 5110,
      "ĠChaval": 5111,
      "Ġinclin": 5112,
      "gram": 5113,
      "Ġfeel": 5114,
      "Ġdiscours": 5115,
      "ĠÃ©tonnement": 5116,
      "Ġoiseaux": 5117,
      "arriver": 5118,
      "Ġcitad": 5119,
      "hous": 5120,
      "mment": 5121,
      "ying": 5122,
      "Ġloi": 5123,
      "Ġsom": 5124,
      "Ġner": 5125,
      "Ġvaleur": 5126,
      "Ġdure": 5127,
      "Ġgroupe": 5128,
      "Ġbrise": 5129,
      "ined": 5130,
      "Ġregagn": 5131,
      "Ġvisiter": 5132,
      "Ġreconnu": 5133,
      "Ġnouveaux": 5134,
      "Ġtaken": 5135,
      "Ġbaron": 5136,
      "Ġnavig": 5137,
      "Ġsauvage": 5138,
      "Ġpoison": 5139,
      "ĠdÃ©clara": 5140,
      "Ġexcellent": 5141,
      "Ġjaune": 5142,
      "Ġmaladie": 5143,
      "Ġbibli": 5144,
      ",âĢĶ": 5145,
      "BientÃ´t": 5146,
      "vu": 5147,
      "Ġdoc": 5148,
      "Ġpant": 5149,
      "Ġtelles": 5150,
      "Ġbiz": 5151,
      "Ġrom": 5152,
      "Ġgest": 5153,
      "riff": 5154,
      "aven": 5155,
      "onnement": 5156,
      "Ġdisais": 5157,
      "examin": 5158,
      "Ġsaisit": 5159,
      "Ġverd": 5160,
      "ĠderniÃ¨res": 5161,
      "Ġjeunesse": 5162,
      "effet": 5163,
      "ishop": 5164,
      "Ġeverything": 5165,
      "Ġmousquetaire": 5166,
      "Ġfleuve": 5167,
      "Ġnaturellement": 5168,
      "housias": 5169,
      "vement": 5170,
      "Ġvac": 5171,
      "urg": 5172,
      "Ġparlez": 5173,
      "oyable": 5174,
      "ĠcongÃ©": 5175,
      "Ġassi": 5176,
      "angl": 5177,
      "Ġperhaps": 5178,
      "olemment": 5179,
      "Ġcontinue": 5180,
      "Ġfamil": 5181,
      "Ġviolent": 5182,
      "Ġdemeura": 5183,
      "expression": 5184,
      "ĠÃ©motion": 5185,
      "Ġatteint": 5186,
      "Ġpaquet": 5187,
      "Aut": 5188,
      "Re": 5189,
      "ĠU": 5190,
      "Ġpret": 5191,
      "ara": 5192,
      "itect": 5193,
      "unÃ©g": 5194,
      "Ġaugment": 5195,
      "ries": 5196,
      "ĠMoi": 5197,
      "idement": 5198,
      "ertain": 5199,
      "angle": 5200,
      "ĠRassi": 5201,
      "ignait": 5202,
      "ignore": 5203,
      "ency": 5204,
      "ĠTu": 5205,
      "Ġconstr": 5206,
      "Ġsortie": 5207,
      "Ġcomprom": 5208,
      "Ġpresent": 5209,
      "Ġincident": 5210,
      "Ġnov": 5211,
      "Ġvoisine": 5212,
      "Ġvolontiers": 5213,
      "Ġdouceur": 5214,
      "Ġcommandant": 5215,
      "Ġmorceaux": 5216,
      "Ġthink": 5217,
      "kerville": 5218,
      "quette": 5219,
      "inÃ©": 5220,
      "Ġfan": 5221,
      "Ġenchant": 5222,
      "irard": 5223,
      "atures": 5224,
      "Ġread": 5225,
      "Ġoeil": 5226,
      "ĠMosc": 5227,
      "Ã©coul": 5228,
      "Jean": 5229,
      "illait": 5230,
      "ĠexÃ©cut": 5231,
      "Ġremis": 5232,
      "Ġlongueur": 5233,
      "Ġfaisais": 5234,
      "Ġcouches": 5235,
      "Ġconnaissez": 5236,
      "Ġinconn": 5237,
      "Ġfrapper": 5238,
      "Ġcreus": 5239,
      "ĠReed": 5240,
      "Avant": 5241,
      "ĠNew": 5242,
      "Ġfaudra": 5243,
      "Ġworld": 5244,
      "mosphÃ¨re": 5245,
      "Ġchagrin": 5246,
      "Ġidea": 5247,
      "unÃ©gonde": 5248,
      "by": 5249,
      "man": 5250,
      "Â£": 5251,
      "ĠmÃ¢t": 5252,
      "Ġnob": 5253,
      "Ġavert": 5254,
      "endorm": 5255,
      "Ġchal": 5256,
      "ired": 5257,
      "illa": 5258,
      "ĠÃ©ner": 5259,
      "Ġserons": 5260,
      "...Â»": 5261,
      "ignation": 5262,
      "Ġappare": 5263,
      "Ġcorrid": 5264,
      "Ã©chelle": 5265,
      "Ġviolemment": 5266,
      "ĠArch": 5267,
      "atson": 5268,
      "Ġmorning": 5269,
      "ĠgÃ©nÃ©": 5270,
      "Ġsingulier": 5271,
      "Ġgouvernante": 5272,
      "Ġphrases": 5273,
      "Ġconvicts": 5274,
      "Ġretraite": 5275,
      "Votre": 5276,
      "Ġel": 5277,
      "Ġdent": 5278,
      "ĠpÃ©ri": 5279,
      "Ġcath": 5280,
      "ĠdegrÃ©": 5281,
      "Ġnum": 5282,
      "Ġright": 5283,
      "Ġunder": 5284,
      "Ġuntil": 5285,
      "Ġhyp": 5286,
      "atif": 5287,
      "Ġprat": 5288,
      "oiff": 5289,
      "Ġsachant": 5290,
      "ottes": 5291,
      "Ġalmost": 5292,
      "tern": 5293,
      "ĠFer": 5294,
      "Ġaccour": 5295,
      "Ġjetant": 5296,
      "aillit": 5297,
      "Ġabsence": 5298,
      "interromp": 5299,
      "ĠrapiditÃ©": 5300,
      "Ġformid": 5301,
      "aperÃ§ut": 5302,
      "Ġprobablement": 5303,
      "ĠextrÃªmement": 5304,
      "ĠconsÃ©quent": 5305,
      "Ġdissimul": 5306,
      "Ġbouteille": 5307,
      "path": 5308,
      "sent": 5309,
      "Ġombre": 5310,
      "Ġcage": 5311,
      "quatre": 5312,
      "entrer": 5313,
      "ĠfÃ©lic": 5314,
      "armes": 5315,
      "Ġlas": 5316,
      "Ġbuv": 5317,
      "Ġreb": 5318,
      "olÃ©": 5319,
      "Ġthing": 5320,
      "ĠLong": 5321,
      "allai": 5322,
      "ĠInd": 5323,
      "ĠVendredi": 5324,
      "ĠtempÃªte": 5325,
      "Ġjetait": 5326,
      "Ġrepart": 5327,
      "ĠPrinc": 5328,
      "ĠÃ©lÃ©g": 5329,
      "Ġjournal": 5330,
      "Ġsauvages": 5331,
      "azzo": 5332,
      "Ġvagues": 5333,
      "Ġcamarade": 5334,
      "Ġnourriture": 5335,
      "Ġguide": 5336,
      "ĠdifficultÃ©": 5337,
      "Ġmachine": 5338,
      "Ġreligion": 5339,
      "ĠÃ©vÃ©nements": 5340,
      "ĠÃ©pouvant": 5341,
      "fe": 5342,
      "forme": 5343,
      "iÃ©s": 5344,
      "jou": 5345,
      "encieux": 5346,
      "Ġmaud": 5347,
      "Ġdedans": 5348,
      "enty": 5349,
      "orde": 5350,
      "Ġhour": 5351,
      "Ġseen": 5352,
      "ouvre": 5353,
      "Ġpourra": 5354,
      "ersonne": 5355,
      "ieres": 5356,
      "Ã©ra": 5357,
      "Ġthir": 5358,
      "Ã¢tres": 5359,
      "oyant": 5360,
      "Ġseront": 5361,
      "ĠmarchÃ©": 5362,
      "Ġpassaient": 5363,
      "appuy": 5364,
      "artÃ©": 5365,
      "ĠÃ©pÃ©e": 5366,
      "Ġobtenir": 5367,
      "ogr": 5368,
      "Ġrenv": 5369,
      "ĠPrudence": 5370,
      "Ġnoires": 5371,
      "ĠSignora": 5372,
      "ĠMinister": 5373,
      "Ġdessein": 5374,
      "Ġtristesse": 5375,
      "iaient": 5376,
      "Ġpip": 5377,
      "Ġsage": 5378,
      "ĠtÃ¢che": 5379,
      "Ġfell": 5380,
      "isait": 5381,
      "Ġaviez": 5382,
      "Ġprenez": 5383,
      "outum": 5384,
      "otes": 5385,
      "ĠEs": 5386,
      "ancÃ©e": 5387,
      "Ġsentis": 5388,
      "Ġvisit": 5389,
      "Ġsourit": 5390,
      "They": 5391,
      "Ġtournait": 5392,
      "Ġpatron": 5393,
      "Ġrude": 5394,
      "berge": 5395,
      "ongeait": 5396,
      "Ġpreuve": 5397,
      "ĠsiÃ¨ge": 5398,
      "Ġrayon": 5399,
      "Ġtapis": 5400,
      "Ã©clair": 5401,
      "Ġbaiser": 5402,
      "ĠrÃ©flexion": 5403,
      "Ġmeurt": 5404,
      "ĠsincÃ¨re": 5405,
      "Ġcouteau": 5406,
      "ĠBaskerville": 5407,
      "Lui": 5408,
      "Ġiv": 5409,
      "Ġcerv": 5410,
      "Ġmi": 5411,
      "Ġmult": 5412,
      "eral": 5413,
      "Ġfive": 5414,
      "ĠnÃ©gl": 5415,
      "Ġaurez": 5416,
      "avec": 5417,
      "avanÃ§a": 5418,
      "Ġtroupe": 5419,
      "ĠMou": 5420,
      "icable": 5421,
      "ĠPier": 5422,
      "ĠÃ©veill": 5423,
      "ĠmarÃ©e": 5424,
      "ĠBer": 5425,
      "agnol": 5426,
      "vern": 5427,
      "Ġmanif": 5428,
      "Ġperc": 5429,
      "Ġblanches": 5430,
      "Ġheureusement": 5431,
      "Ġpousser": 5432,
      "Ġpermis": 5433,
      "ĠcommencÃ©": 5434,
      "orgueil": 5435,
      "annÃ©e": 5436,
      "ĠrÃ©flÃ©chir": 5437,
      "leton": 5438,
      "Ġsympath": 5439,
      "Ġjalous": 5440,
      "Ġbureau": 5441,
      "ceived": 5442,
      "ĠMosca": 5443,
      "QU": 5444,
      "lui": 5445,
      "Ġdouter": 5446,
      "Ġciv": 5447,
      "Ġcoiff": 5448,
      "Ġmoqu": 5449,
      "Ġfureur": 5450,
      "ison": 5451,
      "Ġrud": 5452,
      "apleton": 5453,
      "ulte": 5454,
      "illÃ©e": 5455,
      "Ġenter": 5456,
      "ĠÃ©puis": 5457,
      "Ã©lÃ©g": 5458,
      "ĠcÃ´tes": 5459,
      "ĠWatson": 5460,
      "Ġpaysan": 5461,
      "Ġnavires": 5462,
      "Ġdiscut": 5463,
      "Quelque": 5464,
      "Ġbrig": 5465,
      "Char": 5466,
      "Ġpalazzo": 5467,
      "rimaud": 5468,
      "Ġsoldat": 5469,
      "Ġvoila": 5470,
      "ĠfidÃ¨le": 5471,
      "Ġcitadel": 5472,
      "Ġnerfs": 5473,
      "eneur": 5474,
      "Ġpi": 5475,
      "Ġraf": 5476,
      "agÃ©s": 5477,
      "resp": 5478,
      "ĠMartin": 5479,
      "Ã©pÃ©e": 5480,
      "erst": 5481,
      "Ã®lot": 5482,
      "ched": 5483,
      "ĠBien": 5484,
      "assent": 5485,
      "ĠrÃ©pondu": 5486,
      "Ġperson": 5487,
      "Ġnoms": 5488,
      "Ġpromener": 5489,
      "Ġreconnus": 5490,
      "Ġramen": 5491,
      "effor": 5492,
      "ĠAllons": 5493,
      "ovico": 5494,
      "ĠoccupÃ©": 5495,
      "ĠremarquÃ©": 5496,
      "Ġanything": 5497,
      "ĠgagnÃ©": 5498,
      "ĠrÃªver": 5499,
      "Ġdevenue": 5500,
      "ĠcommenÃ§ai": 5501,
      "ĠmÃ©nage": 5502,
      "Ġjoli": 5503,
      "ĠPacifique": 5504,
      "Ph": 5505,
      "Souv": 5506,
      "bot": 5507,
      "mor": 5508,
      "obl": 5509,
      "ved": 5510,
      "ĠpÃ©t": 5511,
      "anes": 5512,
      "Ġmess": 5513,
      "Ġtes": 5514,
      "ĠfÃ¢ch": 5515,
      "arme": 5516,
      "Ġnage": 5517,
      "Ġbaie": 5518,
      "agÃ©e": 5519,
      "Ġplup": 5520,
      "onnez": 5521,
      "oly": 5522,
      "Ã©prouv": 5523,
      "ĠCar": 5524,
      "Ġpouvons": 5525,
      "rade": 5526,
      "Ã©gyptienne": 5527,
      "Ġattaqu": 5528,
      "Ġpremiere": 5529,
      "Ġsupport": 5530,
      "Ġpleins": 5531,
      "Ġservait": 5532,
      "Ġsilencieux": 5533,
      "Ġrenouv": 5534,
      "ThÃ©rÃ¨se": 5535,
      "ached": 5536,
      "Ġredoubl": 5537,
      "Ġjugement": 5538,
      "Ġmeilleure": 5539,
      "Lorsqu": 5540,
      "Ġdeviner": 5541,
      "attendais": 5542,
      "animal": 5543,
      "Ġmonstre": 5544,
      "ĠContessa": 5545,
      "Ġpaisible": 5546,
      "Ġvengeance": 5547,
      "Ġplupart": 5548,
      "hÃ©r": 5549,
      "iai": 5550,
      "Ġpiece": 5551,
      "ĠsÅĵur": 5552,
      "ouc": 5553,
      "Ġable": 5554,
      "Ġfuite": 5555,
      "ourde": 5556,
      "Ġgig": 5557,
      "alle": 5558,
      "chÃ©s": 5559,
      "ĠMes": 5560,
      "Ã©pous": 5561,
      "ĠCette": 5562,
      "ignit": 5563,
      "ĠfermÃ©e": 5564,
      "Ġmineurs": 5565,
      "Ġministre": 5566,
      "Ġsaison": 5567,
      "Ġphysi": 5568,
      "Ġinterro": 5569,
      "ĠrÃ©clam": 5570,
      "Ġinform": 5571,
      "Ġremonter": 5572,
      "Ġtendresse": 5573,
      "ĠsÃ©min": 5574,
      "ength": 5575,
      "ĠinquiÃ©tude": 5576,
      "Ġrejoindre": 5577,
      "ĠItal": 5578,
      "car": 5579,
      "Ġring": 5580,
      "Ã¨que": 5581,
      "Ġplaine": 5582,
      "abilitÃ©": 5583,
      "ĠComme": 5584,
      "sif": 5585,
      "ĠLÃ©on": 5586,
      "ĠrÃ©pu": 5587,
      "ĠrÃ©putation": 5588,
      "ĠBessie": 5589,
      "appelle": 5590,
      "ifier": 5591,
      "Ġmany": 5592,
      "Ġdirecteur": 5593,
      "Ġaille": 5594,
      "ĠrestÃ©e": 5595,
      "Ġaccent": 5596,
      "ĠcouchÃ©": 5597,
      "Ġintention": 5598,
      "Ġstat": 5599,
      "...,": 5600,
      "Ġpleurer": 5601,
      "glise": 5602,
      "Ġobsc": 5603,
      "ĠGrande": 5604,
      "Ġtranquill": 5605,
      "Ġendorm": 5606,
      "Ġacqu": 5607,
      "Ġaccepter": 5608,
      "Ġfroidement": 5609,
      "Ġfrappa": 5610,
      "Ġprovisions": 5611,
      "Ġrecommen": 5612,
      "Ġbox": 5613,
      "Ġhalf": 5614,
      "truction": 5615,
      "Ġmouchoir": 5616,
      "vis": 5617,
      "Ġlois": 5618,
      "enod": 5619,
      "Ġcuir": 5620,
      "Ġmassi": 5621,
      "Ġnette": 5622,
      "Ġniv": 5623,
      "ĠrÃ¨g": 5624,
      "aug": 5625,
      "Ġplume": 5626,
      "ĠchaÃ®": 5627,
      "olique": 5628,
      "Ġeh": 5629,
      "ĠCollins": 5630,
      "ications": 5631,
      "Ġthings": 5632,
      "ĠentrÃ©e": 5633,
      "Ġcroix": 5634,
      "issante": 5635,
      "ĠFa": 5636,
      "ower": 5637,
      "ext": 5638,
      "Ġcriant": 5639,
      "ĠarrivÃ©s": 5640,
      "Ġtenaient": 5641,
      "Ġcharme": 5642,
      "ĠtombÃ©e": 5643,
      "Ġloge": 5644,
      "ĠdÃ©vor": 5645,
      "Ġroad": 5646,
      "Ġdiscuss": 5647,
      "Ã®nt": 5648,
      "Ġsucces": 5649,
      "Ġconvenable": 5650,
      "ĠaperÃ§u": 5651,
      "ĠKetty": 5652,
      "Ġchangement": 5653,
      "ĠmystÃ¨re": 5654,
      "Ġmillions": 5655,
      "Ġprotest": 5656,
      "ĠlÃ©gÃ¨rement": 5657,
      "extrÃ©mitÃ©": 5658,
      "ĠprÃ©texte": 5659,
      "bishop": 5660,
      "na": 5661,
      "uÃ©s": 5662,
      "quets": 5663,
      "Ġmun": 5664,
      "Ġmirent": 5665,
      "entendait": 5666,
      "Ġfasse": 5667,
      "ĠbÃªtes": 5668,
      "Ġharp": 5669,
      "Ã¨bres": 5670,
      "ĠCunÃ©gonde": 5671,
      "onds": 5672,
      "ĠPirard": 5673,
      "irez": 5674,
      "Ġaspect": 5675,
      "appe": 5676,
      "ĠRos": 5677,
      "ĠÂ».": 5678,
      "Ġdonnant": 5679,
      "Ġcare": 5680,
      "Ġaccident": 5681,
      "Ġenvelopp": 5682,
      "ormais": 5683,
      "acharie": 5684,
      "ĠprÃ©senter": 5685,
      "Ã©quipage": 5686,
      "ĠdÃ©vou": 5687,
      "ĠfrappÃ©": 5688,
      "ĠrencontrÃ©": 5689,
      "ĠboÃ®te": 5690,
      "Ġcaval": 5691,
      "ĠforcÃ©": 5692,
      "Ġbillet": 5693,
      "ĠFranÃ§ais": 5694,
      "Ġsimpl": 5695,
      "Ġcorridor": 5696,
      "Bon": 5697,
      "Madame": 5698,
      "Ġsoie": 5699,
      "Ġcop": 5700,
      "relle": 5701,
      "ĠdelÃł": 5702,
      "iniÃ¨re": 5703,
      "Ġfau": 5704,
      "Ġleave": 5705,
      "Ġras": 5706,
      "Ã©ter": 5707,
      "Ġenj": 5708,
      "emm": 5709,
      "Ġsaurait": 5710,
      "ĠLE": 5711,
      "assÃ©e": 5712,
      "Ġvieilles": 5713,
      "Ġmontrant": 5714,
      "ĠQuoi": 5715,
      "Ġhorreur": 5716,
      "Ġcabaret": 5717,
      "Ġdemeurait": 5718,
      "................": 5719,
      "ĠValenod": 5720,
      "Ġchemise": 5721,
      "Ġdirectement": 5722,
      "ĠArchbishop": 5723,
      "Ici": 5724,
      "Notre": 5725,
      "Passepartout": 5726,
      "ek": 5727,
      "gle": 5728,
      "uin": 5729,
      "Ġlent": 5730,
      "Ã©j": 5731,
      "iron": 5732,
      "Ġrede": 5733,
      "Ġparu": 5734,
      "sivement": 5735,
      "uls": 5736,
      "Ã´tre": 5737,
      "Ġapercevoir": 5738,
      "asseneur": 5739,
      "ĠrÃ©gl": 5740,
      "Ã©rid": 5741,
      "Ġcoff": 5742,
      "ĠtombÃ©": 5743,
      "Ġdescendait": 5744,
      "Ġcroiss": 5745,
      "Ġpermettre": 5746,
      "ĠrÃ©solu": 5747,
      "Ġplacer": 5748,
      "Ġconseil": 5749,
      "Ġjoyeux": 5750,
      "Ġdimanche": 5751,
      "Ġriches": 5752,
      "ĠpropriÃ©t": 5753,
      "Cl": 5754,
      "Harris": 5755,
      "iam": 5756,
      "row": 5757,
      "Ġpor": 5758,
      "anÃ§on": 5759,
      "Ġmoin": 5760,
      "unt": 5761,
      "Ġpros": 5762,
      "Ã®tre": 5763,
      "Ġcrus": 5764,
      "Ġcrains": 5765,
      "llez": 5766,
      "Ġheard": 5767,
      "Ġcourte": 5768,
      "Ġportion": 5769,
      "attention": 5770,
      "Ġmince": 5771,
      "Ġspir": 5772,
      "Ġtraverser": 5773,
      "accompagn": 5774,
      "ĠMilan": 5775,
      "Ġhabitants": 5776,
      "Ġremarquer": 5777,
      "ĠdrÃ´le": 5778,
      "Ġparfaite": 5779,
      "ĠprÃ©cipit": 5780,
      "Ġdistinguer": 5781,
      "Ġtravailler": 5782,
      "Ġempr": 5783,
      "Ġnullement": 5784,
      "Ġressemblait": 5785,
      "Ġlecture": 5786,
      "Ġlinge": 5787,
      "ĠPrincess": 5788,
      "da": 5789,
      "lotte": 5790,
      "oci": 5791,
      "uff": 5792,
      "aimait": 5793,
      "Ġpoul": 5794,
      "Ġsy": 5795,
      "Ġsombres": 5796,
      "Ġmol": 5797,
      "Ġmoul": 5798,
      "Ġmode": 5799,
      "Ġfact": 5800,
      "omÃ¨tre": 5801,
      "Ġget": 5802,
      "agon": 5803,
      "apercev": 5804,
      "Ġanother": 5805,
      "ĠSur": 5806,
      "Ġbrut": 5807,
      "orel": 5808,
      "Ġdevez": 5809,
      "Ġformer": 5810,
      "Ġformait": 5811,
      "Ġpassag": 5812,
      "ĠÃ©couter": 5813,
      "intention": 5814,
      "ĠcachÃ©": 5815,
      "Ġretira": 5816,
      "ĠportÃ©": 5817,
      "ĠrÃ©serve": 5818,
      "Ġassure": 5819,
      "inclin": 5820,
      "Ġpromesse": 5821,
      "Ġcertaines": 5822,
      "Ġrenseign": 5823,
      "Ã©vÃªque": 5824,
      "Ġappeler": 5825,
      "Ġcharmant": 5826,
      "ĠÃ©tranger": 5827,
      "Ġennuy": 5828,
      "ĠÃ©chapper": 5829,
      "Ġcousin": 5830,
      "arrivÃ©e": 5831,
      "Ġofficier": 5832,
      "Ġbegan": 5833,
      "ĠpoussiÃ¨re": 5834,
      "Ġpharmacien": 5835,
      "Ġknew": 5836,
      "aques": 5837,
      "Ġloc": 5838,
      "enu": 5839,
      "Ġpente": 5840,
      "Ġmut": 5841,
      "Ġmord": 5842,
      "Ġtiens": 5843,
      "Ġtimes": 5844,
      "eler": 5845,
      "Ġrochers": 5846,
      "ĠÃ©tal": 5847,
      "Ġwish": 5848,
      "Ġceinture": 5849,
      "Ġthough": 5850,
      "ĠLA": 5851,
      "Ġexact": 5852,
      "ĠAnglais": 5853,
      "Ġmarier": 5854,
      "eureusement": 5855,
      "Ġtermes": 5856,
      "ĠTr": 5857,
      "intes": 5858,
      "Ġsentier": 5859,
      "Ġobten": 5860,
      "Ġobject": 5861,
      "Ġits": 5862,
      "Ġinconnu": 5863,
      "Ġsuffit": 5864,
      "Ġessaya": 5865,
      "ĠbrÃ»l": 5866,
      "ĠchangÃ©": 5867,
      "Ġlooked": 5868,
      "Ġadmirable": 5869,
      "Ġdimin": 5870,
      "Ġpolitique": 5871,
      "Ġtorrent": 5872,
      "Ġfaiblesse": 5873,
      "Ġboulevers": 5874,
      "Ġsubitement": 5875,
      "Ġniveau": 5876,
      "Jane": 5877,
      "Ã©veill": 5878,
      "Ġpau": 5879,
      "Ġmend": 5880,
      "Ġvel": 5881,
      "Ġund": 5882,
      "ousse": 5883,
      "Ġplaf": 5884,
      "Ġintrod": 5885,
      "acÃ©s": 5886,
      "Ã©rable": 5887,
      "Ġprote": 5888,
      "Ġarbre": 5889,
      "Ġregardaient": 5890,
      "Ġconsul": 5891,
      "odovico": 5892,
      "ĠdÃ©sirait": 5893,
      "ichel": 5894,
      "Ġrecueill": 5895,
      "ĠpensÃ©": 5896,
      "Ġcomprend": 5897,
      "Ġjoue": 5898,
      "Ġkilom": 5899,
      "anchement": 5900,
      "ĠFranc": 5901,
      "othÃ¨que": 5902,
      "Ġirrit": 5903,
      "Chaque": 5904,
      "Ġcircul": 5905,
      "ĠabandonnÃ©": 5906,
      "ĠsÃ©jour": 5907,
      "Ġmusique": 5908,
      "Ġcousine": 5909,
      "Ġsoient": 5910,
      "ĠmÃ©rite": 5911,
      "ĠfÃ¢chÃ©": 5912,
      "ĠexceptÃ©": 5913,
      "Ġcellule": 5914,
      "ĠÃ®les": 5915,
      "Charles": 5916,
      ".,": 5917,
      "Pierre": 5918,
      "hÃ´te": 5919,
      "ril": 5920,
      "Ġutile": 5921,
      "Ã©ant": 5922,
      "Ġmaire": 5923,
      "Ġmass": 5924,
      "Ġtord": 5925,
      "entra": 5926,
      "ural": 5927,
      "Ã©poque": 5928,
      "acles": 5929,
      "Ġtown": 5930,
      "Ġ!âĢ¦": 5931,
      "Ġquelles": 5932,
      "Ġallant": 5933,
      "ifiques": 5934,
      "ĠmaniÃ¨res": 5935,
      "lements": 5936,
      "Ġcoupable": 5937,
      "minÃ©es": 5938,
      "Ġsolide": 5939,
      "Ġsolitude": 5940,
      "ardiner": 5941,
      "Ġsoufflait": 5942,
      "ĠGrand": 5943,
      "Ġviande": 5944,
      "Ġsubst": 5945,
      "Ġbourse": 5946,
      "Ġcausait": 5947,
      "ĠtirÃ©": 5948,
      "Ġfriends": 5949,
      "Ġmetres": 5950,
      "ĠHarrison": 5951,
      "Ġhappiness": 5952,
      "Ġpistoles": 5953,
      "Ġcostume": 5954,
      "**": 5955,
      "?...": 5956,
      "rat": 5957,
      "so": 5958,
      "ueux": 5959,
      "wh": 5960,
      "Ġdirait": 5961,
      "Ġlant": 5962,
      "Ġlaissez": 5963,
      "Ġset": 5964,
      "Ġsois": 5965,
      "ĠcÃ©l": 5966,
      "Ġah": 5967,
      "Ġtum": 5968,
      "ety": 5969,
      "Ġfaux": 5970,
      "Ġlesquelles": 5971,
      "Ġreason": 5972,
      "Ġseigneur": 5973,
      "ĠÃ©tinc": 5974,
      "sept": 5975,
      "Ġchauff": 5976,
      "abs": 5977,
      "Ã©cur": 5978,
      "acitÃ©": 5979,
      "uez": 5980,
      "agea": 5981,
      "Ġsubl": 5982,
      "ĠBes": 5983,
      "opin": 5984,
      "ĠpassÃ©e": 5985,
      "Ã©rience": 5986,
      "ĠdÃ©sagrÃ©": 5987,
      "ĠÃ©paisse": 5988,
      "Ġaimer": 5989,
      "room": 5990,
      "Ġfermer": 5991,
      "Ġaccro": 5992,
      "ĠempÃª": 5993,
      "Ġservante": 5994,
      "Ġincap": 5995,
      "Ġconfond": 5996,
      "ĠmatinÃ©e": 5997,
      "ĠpoussÃ©": 5998,
      "Ã¨ves": 5999,
      "ĠÃ©gard": 6000,
      "ĠgÃ©nie": 6001,
      "Ġressent": 6002,
      "ĠrÃ©solus": 6003,
      "Ġtwenty": 6004,
      "Ġbrick": 6005,
      "Ġsauter": 6006,
      "ĠsuccÃ©d": 6007,
      "Ġrappelait": 6008,
      "observ": 6009,
      "Ġsauta": 6010,
      "ĠgaietÃ©": 6011,
      "Ġintelligence": 6012,
      "ĠtempÃ©rature": 6013,
      "ĠprÃ©caution": 6014,
      "ĠvÃ©cu": 6015,
      "Leur": 6016,
      "ture": 6017,
      "quin": 6018,
      "ĠmÃ¢ch": 6019,
      "Ġvid": 6020,
      "Ġgir": 6021,
      "cheur": 6022,
      "Ġseize": 6023,
      "Ġchasser": 6024,
      "ama": 6025,
      "ĠSorel": 6026,
      "Ġexces": 6027,
      "Ġallow": 6028,
      "ĠHe": 6029,
      "Ġaccueill": 6030,
      "Ġadroit": 6031,
      "Ġadvers": 6032,
      "Ġsortis": 6033,
      "Ġbouge": 6034,
      "Ġcomprenait": 6035,
      "Ġvoisins": 6036,
      "ĠMarie": 6037,
      "Ġpermission": 6038,
      "Ġdirai": 6039,
      "Ġprocure": 6040,
      "ĠdÃ©mar": 6041,
      "Ġancien": 6042,
      "ĠÃ©levÃ©": 6043,
      "ornfield": 6044,
      "ĠpÃ©nÃ©trer": 6045,
      "AmÃ©rique": 6046,
      "Ġrideaux": 6047,
      "Ġsacrifice": 6048,
      "Ġcercle": 6049,
      "Ġconvaincu": 6050,
      "ĠbibliothÃ¨que": 6051,
      "Esp": 6052,
      "ioc": 6053,
      "lande": 6054,
      "ĠcÃ©r": 6055,
      "Ġga": 6056,
      "alis": 6057,
      "Ġtraces": 6058,
      "Ġduquel": 6059,
      "Ġing": 6060,
      "onnÃ©s": 6061,
      "acte": 6062,
      "ierge": 6063,
      "oreux": 6064,
      "Ġserpent": 6065,
      "ension": 6066,
      "assit": 6067,
      "Ġperte": 6068,
      "ĠHigh": 6069,
      "Entre": 6070,
      "Ã©lanÃ§a": 6071,
      "Ġsecr": 6072,
      "Ġobt": 6073,
      "Ġflamb": 6074,
      "Ãīc": 6075,
      "Ġtenez": 6076,
      "ĠrÃ©sister": 6077,
      "Ġrappela": 6078,
      "ĠpÃ¢l": 6079,
      "ĠsauvÃ©": 6080,
      "Ġnombreux": 6081,
      "Ġrecommenc": 6082,
      "Ġinquiet": 6083,
      "Ġatteindre": 6084,
      "Ġberl": 6085,
      "Ġennemis": 6086,
      "Ġradeau": 6087,
      "itecture": 6088,
      "Celui": 6089,
      "Seulement": 6090,
      "ling": 6091,
      "yre": 6092,
      "Ġdone": 6093,
      "Ġcaisse": 6094,
      "Ġtient": 6095,
      "ĠvÃ©g": 6096,
      "Ġvulg": 6097,
      "Ġbor": 6098,
      "Ġprier": 6099,
      "avions": 6100,
      "abatt": 6101,
      "Ã©pouv": 6102,
      "Ġdissi": 6103,
      "Ã´ne": 6104,
      "ĠVoreux": 6105,
      "Ġdonnaient": 6106,
      "ĠdÃ©sormais": 6107,
      "attes": 6108,
      "ĠarrivÃ¨rent": 6109,
      "Ġlevait": 6110,
      "Ġarrang": 6111,
      "ĠsÃ»retÃ©": 6112,
      "Ġpatience": 6113,
      "ĠrÃ©solut": 6114,
      "Ġenvirons": 6115,
      "horreur": 6116,
      "Ġemploy": 6117,
      "Ġcommunication": 6118,
      "When": 6119,
      "Ġdormait": 6120,
      "Ġlatitude": 6121,
      "ĠÃ©coutait": 6122,
      "Ġpolitesse": 6123,
      "Ġappear": 6124,
      "Ġprochaine": 6125,
      "Ġprolong": 6126,
      "Ġpaup": 6127,
      "No": 6128,
      "hon": 6129,
      "obre": 6130,
      "Ġdor": 6131,
      "ench": 6132,
      "Ġtint": 6133,
      "ĠfÃªte": 6134,
      "asin": 6135,
      "Ġhel": 6136,
      "olier": 6137,
      "ĠgrÃ©": 6138,
      "Ġmaking": 6139,
      "illiam": 6140,
      "Ã´me": 6141,
      "apport": 6142,
      "Ġimb": 6143,
      "Ġlonger": 6144,
      "Ġabomin": 6145,
      "ĠÃ©pais": 6146,
      "Ġaide": 6147,
      "Ġsouci": 6148,
      "Ġsorti": 6149,
      "Ġcherche": 6150,
      "Ġminuit": 6151,
      "Ġblancs": 6152,
      "embarr": 6153,
      "heureux": 6154,
      "Ġquoiqu": 6155,
      "Ġfallu": 6156,
      "ĠprÃ©senta": 6157,
      "Ġbalbut": 6158,
      "Ġtransform": 6159,
      "ĠThornfield": 6160,
      "Ġprovoqu": 6161,
      "Ġremarqua": 6162,
      "venture": 6163,
      "Ġtenter": 6164,
      "Ġlangage": 6165,
      "Ġcaverne": 6166,
      "Ġvictime": 6167,
      "Ġruisseau": 6168,
      "Ġjalousie": 6169,
      "ĠBesanÃ§on": 6170,
      "Is": 6171,
      "Ġlou": 6172,
      "reinte": 6173,
      "ĠmÃ©rid": 6174,
      "Ġtut": 6175,
      "etres": 6176,
      "ĠfÃ»mes": 6177,
      "aises": 6178,
      "Ġrig": 6179,
      "Ġreceived": 6180,
      "ĠprÃªte": 6181,
      "ĠchÃ¢t": 6182,
      "Ġinfluence": 6183,
      "oise": 6184,
      "Ġmoney": 6185,
      "icaire": 6186,
      "ulf": 6187,
      "ĠSainte": 6188,
      "Ġentrait": 6189,
      "Ġatro": 6190,
      "ĠallÃ©e": 6191,
      "Ġpassions": 6192,
      "Ġcommis": 6193,
      "Ġrestaient": 6194,
      "Ġcrimin": 6195,
      "Ġincess": 6196,
      "impat": 6197,
      "ustin": 6198,
      "iction": 6199,
      "ĠmanquÃ©": 6200,
      "Ġlittoral": 6201,
      "Ġraconta": 6202,
      "Ġbriser": 6203,
      "Ġblessure": 6204,
      "ĠStapleton": 6205,
      "ĠmisÃ©rables": 6206,
      "Ġlogis": 6207,
      "Ġoreille": 6208,
      "Ġgoutte": 6209,
      "Ġofficiers": 6210,
      "Ġmachin": 6211,
      "Ġorgan": 6212,
      "Ġfantais": 6213,
      "ĠAdÃ¨le": 6214,
      "angloss": 6215,
      "respond": 6216,
      "ajout": 6217,
      "deux": 6218,
      "jor": 6219,
      "ox": 6220,
      "yle": 6221,
      "zy": 6222,
      "Ġsensible": 6223,
      "Ġmien": 6224,
      "Ġtendit": 6225,
      "Ġnation": 6226,
      "Ġvest": 6227,
      "aspect": 6228,
      "Ġunique": 6229,
      "Ġillus": 6230,
      "avis": 6231,
      "Ġchiff": 6232,
      "Ã©cution": 6233,
      "sibles": 6234,
      "adresse": 6235,
      "Ġcrat": 6236,
      "ĠÃ©mer": 6237,
      "Ġwhile": 6238,
      "ĠHans": 6239,
      "Ġremerci": 6240,
      "ĠOÃ¹": 6241,
      "Ġmerci": 6242,
      "Ġcondu": 6243,
      "Ġconduit": 6244,
      "tements": 6245,
      "Ġsaisir": 6246,
      "Ġtears": 6247,
      "Ġhumain": 6248,
      "ĠprÃ©sentait": 6249,
      "Ġgreve": 6250,
      "Ġpermet": 6251,
      "ĠCharlotte": 6252,
      "astique": 6253,
      "ĠdÃ©cida": 6254,
      "ĠnÃ©cessaires": 6255,
      "ĠCependant": 6256,
      "Ġbattait": 6257,
      "ĠÃ©paule": 6258,
      "Ġbelie": 6259,
      "Ġkeep": 6260,
      "Ġprochain": 6261,
      "Ġsouffrance": 6262,
      "Ġrenfer": 6263,
      "Ġvieillard": 6264,
      "Ġcoutume": 6265,
      "ouchure": 6266,
      "ause": 6267,
      "day": 6268,
      "liv": 6269,
      "nÃ©s": 6270,
      "Ġ'": 6271,
      "Ġpaque": 6272,
      "ently": 6273,
      "Ġfeux": 6274,
      "Ġvari": 6275,
      "Ġrout": 6276,
      "Ġless": 6277,
      "igin": 6278,
      "Ã¢ge": 6279,
      "ĠÃ©bl": 6280,
      "Ġforg": 6281,
      "Ġcaress": 6282,
      "ombr": 6283,
      "Ġtrouvais": 6284,
      "ĠrÃ©alitÃ©": 6285,
      "Ġcommune": 6286,
      "Ġabatt": 6287,
      "ista": 6288,
      "Ġposa": 6289,
      "ĠclartÃ©": 6290,
      "Ġvisible": 6291,
      "Ġcorrespond": 6292,
      "Ġaffreux": 6293,
      "rets": 6294,
      "ĠconnaÃ®t": 6295,
      "Åĵuv": 6296,
      "Ġperdus": 6297,
      "Ġobscur": 6298,
      "Ġcast": 6299,
      "ennui": 6300,
      "Ġprofondeurs": 6301,
      "Ġdomaine": 6302,
      "Ġviolente": 6303,
      "ĠdÃ©cider": 6304,
      "officier": 6305,
      "ĠXI": 6306,
      "ĠsinguliÃ¨re": 6307,
      "Ġrappeler": 6308,
      "Ġfurieux": 6309,
      "Ġchanter": 6310,
      "Ġreleva": 6311,
      "ĠÃ©vÃ©nement": 6312,
      "Ġridicule": 6313,
      "ĠfrÃ©quent": 6314,
      "ĠCheminÃ©es": 6315,
      "ĠZacharie": 6316,
      "ĠJacques": 6317,
      "Ġbizarre": 6318,
      "Ġchaloupe": 6319,
      "Ġgigantes": 6320,
      "Europe": 6321,
      "Peu": 6322,
      "Personne": 6323,
      "bt": 6324,
      "iante": 6325,
      "Ġond": 6326,
      "Ġaise": 6327,
      "Ġsap": 6328,
      "Ġcli": 6329,
      "Ġcuiv": 6330,
      "aring": 6331,
      "Ġboul": 6332,
      "Ġjud": 6333,
      "teau": 6334,
      "attr": 6335,
      "ately": 6336,
      "Ġgrac": 6337,
      "Ġtowards": 6338,
      "Ġconsult": 6339,
      "Ã©goire": 6340,
      "Ġeus": 6341,
      "ĠdÃ©serte": 6342,
      "etta": 6343,
      "Ġcouleurs": 6344,
      "ĠprÃ©venir": 6345,
      "ĠphÃ©n": 6346,
      "accompl": 6347,
      "ucation": 6348,
      "ressed": 6349,
      "ĠtrompÃ©": 6350,
      "Ġpression": 6351,
      "froid": 6352,
      "Ġimportant": 6353,
      "Ġprononcer": 6354,
      "Ġlatin": 6355,
      "ĠJeanlin": 6356,
      "aimais": 6357,
      "ĠIngram": 6358,
      "ĠMortimer": 6359,
      "Ġchandelle": 6360,
      "Ġplafond": 6361,
      "'_": 6362,
      "Voyons": 6363,
      "We": 6364,
      "oÃ»te": 6365,
      "Ã©li": 6366,
      "Ġpomp": 6367,
      "Ġsplend": 6368,
      "Ġmid": 6369,
      "erce": 6370,
      "entions": 6371,
      "Ġfoul": 6372,
      "arne": 6373,
      "arriÃ¨re": 6374,
      "Ġviennent": 6375,
      "elÃ©": 6376,
      "usage": 6377,
      "Ġparven": 6378,
      "ardes": 6379,
      "Ã¢le": 6380,
      "ged": 6381,
      "illy": 6382,
      "Ġmarbre": 6383,
      "ĠmarÃ©ch": 6384,
      "try": 6385,
      "ĠRasseneur": 6386,
      "ĠGalais": 6387,
      "ctobre": 6388,
      "Ġcloche": 6389,
      "Ġaffl": 6390,
      "Ġstation": 6391,
      "Ġassassin": 6392,
      "Ġincr": 6393,
      "aider": 6394,
      "Ġconfus": 6395,
      "Ġcanon": 6396,
      "Ġcanons": 6397,
      "ĠGrÃ©goire": 6398,
      "onnerre": 6399,
      "Ġproposition": 6400,
      "Ġactu": 6401,
      "appelait": 6402,
      "Ġglisser": 6403,
      "Ġappeared": 6404,
      "Ġprisonniers": 6405,
      "Ġfollowed": 6406,
      "Ġpirogue": 6407,
      "Ġmonths": 6408,
      "Ġnobles": 6409,
      "Nab": 6410,
      "iable": 6411,
      "Ġlourde": 6412,
      "enne": 6413,
      "arÃ©": 6414,
      "aritÃ©": 6415,
      "Ġhid": 6416,
      "Ġgaill": 6417,
      "Ġgonfl": 6418,
      "Ġproie": 6419,
      "ced": 6420,
      "Ã©cart": 6421,
      "Ġquelconque": 6422,
      "ensitÃ©": 6423,
      "Ġmars": 6424,
      "Ġmarchant": 6425,
      "ĠBarr": 6426,
      "ĠRien": 6427,
      "intellig": 6428,
      "intÃ©ress": 6429,
      "Ġbeh": 6430,
      "Ġappelle": 6431,
      "Ġattendu": 6432,
      "Ġaid": 6433,
      "Ġpension": 6434,
      "Ġreprenait": 6435,
      "Ġclose": 6436,
      "Ġaccabl": 6437,
      "Ġcontinent": 6438,
      "Ġcertes": 6439,
      "Ġhabitude": 6440,
      "ussitÃ´t": 6441,
      "ahi": 6442,
      "Auc": 6443,
      "Ġhumide": 6444,
      "Ġayez": 6445,
      "Ġprovince": 6446,
      "Ġmurmure": 6447,
      "ĠplacÃ©": 6448,
      "Ġprisoner": 6449,
      "ĠemportÃ©": 6450,
      "000": 6451,
      "ĠdestinÃ©e": 6452,
      "Ġmuette": 6453,
      "ĠaisÃ©ment": 6454,
      "aucun": 6455,
      "Ġfoot": 6456,
      "Ġformidable": 6457,
      "Ġincapable": 6458,
      "Bennet": 6459,
      "eorg": 6460,
      "pp": 6461,
      "rure": 6462,
      "xt": 6463,
      "ĠaÃ®n": 6464,
      "Ġtire": 6465,
      "inaires": 6466,
      "Ġfous": 6467,
      "Ġnaiss": 6468,
      "Ġboy": 6469,
      "Ã©tend": 6470,
      "Ġenough": 6471,
      "Ãªle": 6472,
      "amen": 6473,
      "Ġsurv": 6474,
      "ĠCor": 6475,
      "six": 6476,
      "Ġgrotte": 6477,
      "adventure": 6478,
      "icitÃ©": 6479,
      "Ã©ro": 6480,
      "essay": 6481,
      "Ġcraqu": 6482,
      "Ġquels": 6483,
      "Ã»ter": 6484,
      "ĠAussi": 6485,
      "Ġallong": 6486,
      "Ġchere": 6487,
      "ĠpassÃ¨rent": 6488,
      "Ġvenus": 6489,
      "Ġperp": 6490,
      "Ġjeudi": 6491,
      "ĠtouchÃ©": 6492,
      "Ġabord": 6493,
      "Ġclerc": 6494,
      "Ġnotice": 6495,
      "Ġcoude": 6496,
      "Ġtenu": 6497,
      "Ġvolup": 6498,
      "Ġderniere": 6499,
      "Ġscul": 6500,
      "ommod": 6501,
      "Ġbase": 6502,
      "Ġcase": 6503,
      "ĠArmand": 6504,
      "uck": 6505,
      "Ġredesc": 6506,
      "Ġprovision": 6507,
      "ĠreÃ§ut": 6508,
      "ĠmÃ©dioc": 6509,
      "Ġcommencer": 6510,
      "ĠdÃ©goÃ»t": 6511,
      "Ġconvenu": 6512,
      "Ġpossession": 6513,
      "oublier": 6514,
      "Ġpassed": 6515,
      "ĠlisiÃ¨re": 6516,
      "Ġraisonnable": 6517,
      "Ġphilosoph": 6518,
      "Ġmaigre": 6519,
      "ĠrÃ©pugn": 6520,
      "Ġpassagers": 6521,
      "ĠHighness": 6522,
      "Candide": 6523,
      "Ceci": 6524,
      "aking": 6525,
      "bourn": 6526,
      "honn": 6527,
      "Ġlux": 6528,
      "Ã©fait": 6529,
      "Ġpian": 6530,
      "Ġsages": 6531,
      "ĠcÃ¢": 6532,
      "ĠqualitÃ©s": 6533,
      "ĠnÃ©anmoins": 6534,
      "eul": 6535,
      "elÃ©e": 6536,
      "mem": 6537,
      "Ġgend": 6538,
      "estrade": 6539,
      "Ġplair": 6540,
      "endez": 6541,
      "Ġcoming": 6542,
      "olont": 6543,
      "olÃ©e": 6544,
      "ĠfrÃ©g": 6545,
      "Ġbrod": 6546,
      "Ġfortement": 6547,
      "opinion": 6548,
      "Ġcartes": 6549,
      "ĠrÃ©gn": 6550,
      "Ġauxquels": 6551,
      "Ġtouch": 6552,
      "Ġcherchant": 6553,
      "Ġbloc": 6554,
      "oiles": 6555,
      "Ġagir": 6556,
      "Ġinsp": 6557,
      "ĠfaÃ§ons": 6558,
      "ĠÃ©chelle": 6559,
      "Ġ17": 6560,
      "Ġabsur": 6561,
      "ception": 6562,
      "ĠdisparaÃ®tre": 6563,
      "Ġapparut": 6564,
      "ĠBonadventure": 6565,
      "Ġrub": 6566,
      "Ġcruel": 6567,
      "Ġappelait": 6568,
      "ĠrÃ©fug": 6569,
      "ĠforÃªts": 6570,
      "ĠcratÃ¨re": 6571,
      "Ġsculpt": 6572,
      "Alice": 6573,
      "DÃ©j": 6574,
      "Heureusement": 6575,
      "VI": 6576,
      "dle": 6577,
      "ford": 6578,
      "hier": 6579,
      "rut": 6580,
      "Ġlait": 6581,
      "ĠlÃ¢che": 6582,
      "Ġvil": 6583,
      "Ġlaug": 6584,
      "Ġjoign": 6585,
      "astr": 6586,
      "ĠprÃ©parer": 6587,
      "Ġtru": 6588,
      "Ġchans": 6589,
      "Ġchanc": 6590,
      "oler": 6591,
      "Ġeau": 6592,
      "Ã§ai": 6593,
      "ĠSc": 6594,
      "ĠBl": 6595,
      "ĠpassÃ©es": 6596,
      "Ġregardais": 6597,
      "ĠÃ©cart": 6598,
      "Ġcompan": 6599,
      "Ġreprises": 6600,
      "Ġintrig": 6601,
      "Ġboue": 6602,
      "Ġsource": 6603,
      "Ġcomprenez": 6604,
      "approcher": 6605,
      "Ġvraie": 6606,
      "Ġjouait": 6607,
      "Ġpoing": 6608,
      "Ġlumin": 6609,
      "Ġtrib": 6610,
      "Ġdoivent": 6611,
      "ĠgÃ©nÃ©rale": 6612,
      "Ġimportance": 6613,
      "Ġmonstru": 6614,
      "ĠLongbourn": 6615,
      "ĠvÃ©gÃ©t": 6616,
      "ĠphÃ©nom": 6617,
      "Car": 6618,
      "ament": 6619,
      "rÃ¨rent": 6620,
      "Ġpurent": 6621,
      "Ġsonner": 6622,
      "Ġcy": 6623,
      "anv": 6624,
      "entends": 6625,
      "inf": 6626,
      "inci": 6627,
      "Ġferez": 6628,
      "ĠvanitÃ©": 6629,
      "Ġbanqu": 6630,
      "Ġhaie": 6631,
      "Ġprai": 6632,
      "Ġnear": 6633,
      "Ġplans": 6634,
      "Ġtranch": 6635,
      "accepter": 6636,
      "side": 6637,
      "ican": 6638,
      "ĠdÃ©fin": 6639,
      "Ġsuc": 6640,
      "ĠDes": 6641,
      "Ġencour": 6642,
      "Ġtrouvant": 6643,
      "ĠdÃ©sirer": 6644,
      "ĠdÃ©cembre": 6645,
      "ĠmontÃ©": 6646,
      "Ġeffect": 6647,
      "Ġenvoy": 6648,
      "ĠdÃ©tail": 6649,
      "Ġsouffert": 6650,
      "ĠQuelle": 6651,
      "Ġjouiss": 6652,
      "ĠdÃ©but": 6653,
      "Ġ16": 6654,
      "izzy": 6655,
      "Ġapparence": 6656,
      "Ġconnaissais": 6657,
      "Ġtromper": 6658,
      "anÃ§ant": 6659,
      "Ġprintemps": 6660,
      "Ġagainst": 6661,
      "Ġvapeurs": 6662,
      "Ġdirigea": 6663,
      "abandonner": 6664,
      "Ġsaurais": 6665,
      "Ġimpatience": 6666,
      "ĠfraÃ®che": 6667,
      "aventure": 6668,
      "ĠmangÃ©": 6669,
      "Ġdangereux": 6670,
      "ĠProv": 6671,
      "housiasme": 6672,
      "ĠcÃ©rÃ©m": 6673,
      "HÃ©las": 6674,
      "sel": 6675,
      "Ġdam": 6676,
      "Ġmob": 6677,
      "arret": 6678,
      "Ġvendre": 6679,
      "Ġhope": 6680,
      "Ã©tud": 6681,
      "Ġprirent": 6682,
      "Ġparois": 6683,
      "Ġoh": 6684,
      "ami": 6685,
      "Ġsurn": 6686,
      "Ġyours": 6687,
      "Ġbrusque": 6688,
      "ĠAinsi": 6689,
      "tra": 6690,
      "ĠEyre": 6691,
      "ĠcarrÃ©": 6692,
      "tress": 6693,
      "Ã©rie": 6694,
      "Ġobjet": 6695,
      "Ġarrivant": 6696,
      "ĠrevÃªt": 6697,
      "Ġinsol": 6698,
      "ĠmariÃ©e": 6699,
      "Ġcalled": 6700,
      "accus": 6701,
      "ĠÃ©viter": 6702,
      "Ġfigures": 6703,
      "ugu": 6704,
      "Ġsensation": 6705,
      "ĠdÃ©sirs": 6706,
      "Ġpalais": 6707,
      "ambo": 6708,
      "Ġchacune": 6709,
      "ĠvÃ©ritablement": 6710,
      "Ġnuage": 6711,
      "Ġtirant": 6712,
      "Ġrisque": 6713,
      "Ã©clat": 6714,
      "Ġpoursuivit": 6715,
      "appartement": 6716,
      "Ġmenton": 6717,
      "Ġimpatient": 6718,
      "Ġgestes": 6719,
      "Ġailleurs": 6720,
      "His": 6721,
      "Se": 6722,
      "So": 6723,
      "lor": 6724,
      "Ġ6": 6725,
      "Ġlaid": 6726,
      "enois": 6727,
      "Ġpattes": 6728,
      "Ġcass": 6729,
      "ĠnoyÃ©": 6730,
      "ung": 6731,
      "Ġetes": 6732,
      "Ġrum": 6733,
      "Ġrares": 6734,
      "Ġhours": 6735,
      "atmosphÃ¨re": 6736,
      "Ġprenaient": 6737,
      "avoue": 6738,
      "Ġchoix": 6739,
      "Ġpourrai": 6740,
      "osait": 6741,
      "Ġgrat": 6742,
      "ivid": 6743,
      "Ġalt": 6744,
      "idents": 6745,
      "uites": 6746,
      "Ġmarins": 6747,
      "Ġremuer": 6748,
      "ĠTrÃ¨s": 6749,
      "intÃ©rÃªt": 6750,
      "tened": 6751,
      "Ġvoulant": 6752,
      "Ġvoulaient": 6753,
      "Ġdoubl": 6754,
      "Ġdoubt": 6755,
      "Ġhero": 6756,
      "Ġnuits": 6757,
      "Ġindis": 6758,
      "Ġapprit": 6759,
      "apprendre": 6760,
      "Ġrefl": 6761,
      "ĠespÃ©rer": 6762,
      "Ġrepe": 6763,
      "ĠexpÃ©d": 6764,
      "ĠÃ©lÃ©ment": 6765,
      "Ġ15": 6766,
      "Ġpermettait": 6767,
      "Ġballe": 6768,
      "Ġoutils": 6769,
      "Ġdirig": 6770,
      "Ġsauf": 6771,
      "ĠprocÃ©d": 6772,
      "Ġpuissant": 6773,
      "ĠprÃ©cipita": 6774,
      "ymore": 6775,
      "Ġgouvernement": 6776,
      "Ġsupposer": 6777,
      "Ġrecherche": 6778,
      "ĠRodolphe": 6779,
      "Ġfrere": 6780,
      "Ġnatural": 6781,
      "Ġdraw": 6782,
      "ĠtÃ©nÃ¨bres": 6783,
      "ĠcathÃ©d": 6784,
      "Souvent": 6785,
      "Ġsublime": 6786,
      "anvier": 6787,
      ":--Â«": 6788,
      "EU": 6789,
      "bourg": 6790,
      "hÃ©s": 6791,
      "iale": 6792,
      "xel": 6793,
      "Ġ...": 6794,
      "enier": 6795,
      "Ġsott": 6796,
      "erse": 6797,
      "entr": 6798,
      "Ġfich": 6799,
      "arra": 6800,
      "Ġbest": 6801,
      "orze": 6802,
      "Ġgall": 6803,
      "agine": 6804,
      "Ġtroup": 6805,
      "endus": 6806,
      "Ġinut": 6807,
      "Ġinde": 6808,
      "ĠCes": 6809,
      "ĠentrÃ©": 6810,
      "ĠcrÃ¢": 6811,
      "obÃ©": 6812,
      "Ġcoque": 6813,
      "Ġcocher": 6814,
      "Ġnouvel": 6815,
      "Ġmatter": 6816,
      "Ġenvoyer": 6817,
      "Ġperdait": 6818,
      "Ġfameux": 6819,
      "Ġsoupe": 6820,
      "Ã©vanou": 6821,
      "ĠpoussÃ©e": 6822,
      "Ġbords": 6823,
      "ĠEnfin": 6824,
      "ĠprocÃ¨s": 6825,
      "Ġhands": 6826,
      "Ġconseils": 6827,
      "Ġanciens": 6828,
      "ĠthÃ©Ã¢tre": 6829,
      "ĠÃ©trangers": 6830,
      "ĠdÃ©licat": 6831,
      "Aramis": 6832,
      "ĠFrank": 6833,
      "Ġreplied": 6834,
      "ĠConti": 6835,
      "Ġdiverses": 6836,
      "Ġcarriage": 6837,
      "Ġtabac": 6838,
      "Ġmanoeuv": 6839,
      "ĠbohÃ©mienne": 6840,
      "Ġmaman": 6841,
      "Ġterribles": 6842,
      "Ab": 6843,
      "du": 6844,
      "Ġ5": 6845,
      "enais": 6846,
      "Ġsavant": 6847,
      "Ġmoll": 6848,
      "eraient": 6849,
      "Ġjup": 6850,
      "Ġleast": 6851,
      "ably": 6852,
      "ĠMad": 6853,
      "ĠPeut": 6854,
      "ĠPangloss": 6855,
      "Ã®me": 6856,
      "enses": 6857,
      "Ġformes": 6858,
      "ĠNord": 6859,
      "Ġvenais": 6860,
      "Ġposer": 6861,
      "objet": 6862,
      "chesse": 6863,
      "Ġaccoutum": 6864,
      "Ġadresse": 6865,
      "ĠdÃ©pit": 6866,
      "Ã©crire": 6867,
      "ĠrÃ©sistance": 6868,
      "Ġoffrir": 6869,
      "Ġscand": 6870,
      "Ġbruits": 6871,
      "ĠAronna": 6872,
      "ĠMilord": 6873,
      "Ġressour": 6874,
      "Ġinvent": 6875,
      "Ġbourg": 6876,
      "Ġtremp": 6877,
      "Ġpersonnages": 6878,
      "Ġused": 6879,
      "ĠrÃ©pÃ©ter": 6880,
      "Ġrisquer": 6881,
      "ĠdiffÃ©rence": 6882,
      "ĠstupÃ©fait": 6883,
      "ĠtroublÃ©": 6884,
      "Ġfrisson": 6885,
      "Ġconduisait": 6886,
      "Ġsmall": 6887,
      "Ġliquide": 6888,
      "ĠdÃ©daign": 6889,
      "Ġpipe": 6890,
      "Ġmanifest": 6891,
      "ĠtranquillitÃ©": 6892,
      "Ġvelours": 6893,
      "ĠAronnax": 6894,
      "Apres": 6895,
      "Pl": 6896,
      "Tant": 6897,
      "fum": 6898,
      "mon": 6899,
      "of": 6900,
      "Ġluc": 6901,
      "enz": 6902,
      "ened": 6903,
      "oulez": 6904,
      "ony": 6905,
      "ready": 6906,
      "Ġfun": 6907,
      "Ġlames": 6908,
      "Ġran": 6909,
      "chon": 6910,
      "Ġplay": 6911,
      "Ġchiens": 6912,
      "ĠchrÃ©t": 6913,
      "ief": 6914,
      "Ã©ph": 6915,
      "ĠeÃ»mes": 6916,
      "acambo": 6917,
      "allum": 6918,
      "ĠGl": 6919,
      "ĠGod": 6920,
      "ĠGrimaud": 6921,
      "ilson": 6922,
      "Ġcouraient": 6923,
      "ĠÃ©coul": 6924,
      "Ġcouper": 6925,
      "Ġsentence": 6926,
      "Ġsuivis": 6927,
      "Ġserviteur": 6928,
      "Ġsolenn": 6929,
      "ĠdÃ©tresse": 6930,
      "ĠgarÃ§ons": 6931,
      "ĠtraversÃ©e": 6932,
      "Ġnote": 6933,
      "ustice": 6934,
      "ĠtournÃ©": 6935,
      "ĠdÃ©bord": 6936,
      "Ġexcurs": 6937,
      "Ġdoes": 6938,
      "Ġembarcation": 6939,
      "ĠÃ©gal": 6940,
      "ĠarrÃªter": 6941,
      "Ġpressent": 6942,
      "ĠbrisÃ©": 6943,
      "ĠapportÃ©": 6944,
      "ĠterminÃ©": 6945,
      "Ġsuffisait": 6946,
      "Ġbetter": 6947,
      "Ġvigoureux": 6948,
      "ween": 6949,
      "Ã©tablir": 6950,
      "ault": 6951,
      "Ġsanglots": 6952,
      "Ġprudent": 6953,
      "MalgrÃ©": 6954,
      "Ġdocument": 6955,
      "Ġgirl": 6956,
      "livier": 6957,
      "ĠÃ©blou": 6958,
      "One": 6959,
      "oor": 6960,
      "Ġsw": 6961,
      "Ġcult": 6962,
      "Ġmov": 6963,
      "ĠtÃ©": 6964,
      "aites": 6965,
      "Ġfonc": 6966,
      "Ġfleur": 6967,
      "eule": 6968,
      "Ġlap": 6969,
      "ork": 6970,
      "orce": 6971,
      "asc": 6972,
      "Ġgol": 6973,
      "aves": 6974,
      "agg": 6975,
      "ouvrait": 6976,
      "Ġpourraient": 6977,
      "abli": 6978,
      "Ġinqu": 6979,
      "resc": 6980,
      "Ġev": 6981,
      "ĠCrois": 6982,
      "Ġgrille": 6983,
      "Ġside": 6984,
      "Ġalready": 6985,
      "Ġbrought": 6986,
      "Ġmarches": 6987,
      "ĠFar": 6988,
      "Ġpouvant": 6989,
      "ĠÃ©per": 6990,
      "Ġintim": 6991,
      "puiss": 6992,
      "ĠblÃ©": 6993,
      "Ġmother": 6994,
      "Ġinstall": 6995,
      "ĠprÃ©sente": 6996,
      "ĠParce": 6997,
      "Ġfonds": 6998,
      "Ġvitre": 6999,
      "Ġvoudrez": 7000,
      "raisembl": 7001,
      "ĠdÃ©fendre": 7002,
      "Ġgardait": 7003,
      "Ġsanglot": 7004,
      "ĠÃīc": 7005,
      "Ġfear": 7006,
      "Ġdessous": 7007,
      "Chap": 7008,
      "Ġcabine": 7009,
      "ongea": 7010,
      "ĠÃ©clata": 7011,
      "Ġbrillait": 7012,
      "Ġancienne": 7013,
      "ypte": 7014,
      "Ġbaisers": 7015,
      "ĠÃ©prouvait": 7016,
      "Ġnulle": 7017,
      "ENT": 7018,
      "Ġreturn": 7019,
      "ĠamenÃ©": 7020,
      "Ġnettement": 7021,
      "Ġroutes": 7022,
      "ĠfrÃ©gate": 7023,
      "AussitÃ´t": 7024,
      "NE": 7025,
      "hter": 7026,
      "lock": 7027,
      "mont": 7028,
      "ĠÅĵil": 7029,
      "Ġombres": 7030,
      "Ġdign": 7031,
      "Ġpel": 7032,
      "Ġpire": 7033,
      "Ġcig": 7034,
      "Ġmai": 7035,
      "itution": 7036,
      "ĠvallÃ©e": 7037,
      "Ġrace": 7038,
      "Ġparfum": 7039,
      "riques": 7040,
      "ĠÃ©tage": 7041,
      "ĠÃ©tendu": 7042,
      "Ġplantes": 7043,
      "Ġplanches": 7044,
      "ieme": 7045,
      "ected": 7046,
      "Ġalso": 7047,
      "ĠSan": 7048,
      "ĠLouvre": 7049,
      "Ġdisaient": 7050,
      "Ġproport": 7051,
      "ĠcrÃ©p": 7052,
      "Ġsueur": 7053,
      "ĠExc": 7054,
      "ombien": 7055,
      "Ġvenant": 7056,
      "Ġcommerce": 7057,
      "ĠfermÃ©": 7058,
      "Ġlaissaient": 7059,
      "Ġaurions": 7060,
      "ĠempÃªcher": 7061,
      "Ġspoke": 7062,
      "Ġouvrage": 7063,
      "ĠprÃ©cieux": 7064,
      "arbres": 7065,
      "Ġembarqu": 7066,
      "Ġmener": 7067,
      "ĠrÃ©col": 7068,
      "Ġredress": 7069,
      "Ġexpliquer": 7070,
      "uves": 7071,
      "Ġquitte": 7072,
      "berg": 7073,
      "ĠsituÃ©e": 7074,
      "Ġrefuser": 7075,
      "Ġlutter": 7076,
      "Ġformaient": 7077,
      "Ġobservation": 7078,
      "Ġescape": 7079,
      "ĠparticuliÃ¨rement": 7080,
      "Ġmission": 7081,
      "ĠprÃ©vÃ´t": 7082,
      "Ġbetween": 7083,
      "Ġcraignait": 7084,
      "ĠachevÃ©": 7085,
      "Ġinfiniment": 7086,
      "ĠmÃ©can": 7087,
      "ĠindiffÃ©r": 7088,
      "ĠSauvages": 7089,
      "ĠnÃ©glig": 7090,
      "Ġdiscussion": 7091,
      "OR": 7092,
      "dres": 7093,
      "ool": 7094,
      "rante": 7095,
      "ÃĬ": 7096,
      "Ġsien": 7097,
      "ones": 7098,
      "Ġtig": 7099,
      "Ġtonnerre": 7100,
      "ily": 7101,
      "Ġvus": 7102,
      "asions": 7103,
      "Ġunif": 7104,
      "Ġhouille": 7105,
      "atifs": 7106,
      "Ã¨ches": 7107,
      "Ġremem": 7108,
      "Ãªne": 7109,
      "outh": 7110,
      "Ġgrain": 7111,
      "Ġgroupes": 7112,
      "ĠPort": 7113,
      "Ã©rup": 7114,
      "ĠLizzy": 7115,
      "Ġentrant": 7116,
      "aisses": 7117,
      "allait": 7118,
      "Ġcontenait": 7119,
      "Ġcommence": 7120,
      "ĠdÃ©sign": 7121,
      "Ġporta": 7122,
      "Ġadded": 7123,
      "embouchure": 7124,
      "Ġempress": 7125,
      "Ġspec": 7126,
      "impression": 7127,
      "Ġscrup": 7128,
      "approche": 7129,
      "accro": 7130,
      "ĠlevÃ©": 7131,
      "ĠcomplÃ¨te": 7132,
      "Ġtransporter": 7133,
      "Ġtrompe": 7134,
      "ĠabandonnÃ©e": 7135,
      "Ġrisqu": 7136,
      "ĠhÃ©ros": 7137,
      "Ġbecause": 7138,
      "Ġrideau": 7139,
      "Ġmeubles": 7140,
      "Gringoire": 7141,
      "vingts": 7142,
      "Ġpaquebot": 7143,
      ").": 7144,
      "tait": 7145,
      "Ġdangers": 7146,
      "Ġlett": 7147,
      "Ġpaille": 7148,
      "Ġfuy": 7149,
      "ĠnÃ©g": 7150,
      "Ġjanvier": 7151,
      "tered": 7152,
      "Ġraid": 7153,
      "Ã©touff": 7154,
      "ury": 7155,
      "atri": 7156,
      "ĠgÃªn": 7157,
      "alc": 7158,
      "agan": 7159,
      "Ġtrous": 7160,
      "Ġtrag": 7161,
      "Ġtronc": 7162,
      "Ġinexpl": 7163,
      "amer": 7164,
      "Ġeach": 7165,
      "ivitÃ©": 7166,
      "autÃ©": 7167,
      "Ġcarr": 7168,
      "Ġpassai": 7169,
      "ĠRoi": 7170,
      "Ã©die": 7171,
      "Ã©grel": 7172,
      "istÃ©": 7173,
      "Ġferais": 7174,
      "instr": 7175,
      "Ġcolle": 7176,
      "autrefois": 7177,
      "Ġsuivante": 7178,
      "ĠnommÃ©": 7179,
      "Ġverrons": 7180,
      "ipp": 7181,
      "Ġgovern": 7182,
      "All": 7183,
      "ĠpoÃ¨te": 7184,
      "Ã©vrier": 7185,
      "Ġmorale": 7186,
      "Ġrelations": 7187,
      "Ġproduire": 7188,
      "Ġcharming": 7189,
      "ĠdÃ©roul": 7190,
      "Ġsuffisamment": 7191,
      "Ġaventures": 7192,
      "Ġfollowing": 7193,
      "Ġhonour": 7194,
      "Ġmettant": 7195,
      "ĠpÃªche": 7196,
      "Ġplaindre": 7197,
      "Ġcountry": 7198,
      "ĠsÃ©minaire": 7199,
      "aj": 7200,
      "iais": 7201,
      "nait": 7202,
      "ueuse": 7203,
      "enard": 7204,
      "ĠpÃ¢t": 7205,
      "ĠpÃ´le": 7206,
      "ĠsÃ©parer": 7207,
      "ouquÃ©": 7208,
      "Ġcouverte": 7209,
      "ernes": 7210,
      "Ġquai": 7211,
      "itable": 7212,
      "Ġlament": 7213,
      "Ġgare": 7214,
      "champ": 7215,
      "abor": 7216,
      "illages": 7217,
      "empÃª": 7218,
      "Ġserg": 7219,
      "Ġgrandeur": 7220,
      "ĠTemple": 7221,
      "Ġconstruction": 7222,
      "ĠposÃ©": 7223,
      "Ġferma": 7224,
      "Ġclim": 7225,
      "attach": 7226,
      "Ã©lan": 7227,
      "Ġperspect": 7228,
      "Ġaccr": 7229,
      "ĠintÃ©rieure": 7230,
      "Ġauriez": 7231,
      "ĠjetÃ©e": 7232,
      "Ġexpri": 7233,
      "Ġprofondes": 7234,
      "Ġrespirer": 7235,
      "ĠjournÃ©es": 7236,
      "clock": 7237,
      "ĠinvitÃ©s": 7238,
      "Ġruine": 7239,
      "arrÃªtait": 7240,
      "iletti": 7241,
      "Ġsecondes": 7242,
      "ĠprÃªts": 7243,
      "Ġescalier": 7244,
      "Ġquartier": 7245,
      "Ġtremblante": 7246,
      "Ġouverts": 7247,
      "Ġvinrent": 7248,
      "ĠÃ©levÃ©e": 7249,
      "Ã©loigna": 7250,
      "Ġpavillon": 7251,
      "ĠprotÃ©g": 7252,
      "ĠÃ©troite": 7253,
      "Ġhowever": 7254,
      "Ġsuperbe": 7255,
      "Ġtriomph": 7256,
      "Ġattentivement": 7257,
      "ĠÃ©teint": 7258,
      "ĠÃ©lectrique": 7259,
      "Ġrepentir": 7260,
      "Ġapercevait": 7261,
      "ertainement": 7262,
      "Ġcuivre": 7263,
      "ĠCroisenois": 7264,
      "After": 7265,
      "Ned": 7266,
      "lent": 7267,
      "ĠÃ´t": 7268,
      "Ġuse": 7269,
      "Ġdict": 7270,
      "Ġporc": 7271,
      "ref": 7272,
      "entendit": 7273,
      "ĠfÃ®t": 7274,
      "argn": 7275,
      "elop": 7276,
      "astre": 7277,
      "Ġrun": 7278,
      "ustr": 7279,
      "irons": 7280,
      "Ġrever": 7281,
      "Ġreport": 7282,
      "Ġsever": 7283,
      "Ġpourrez": 7284,
      "onnaient": 7285,
      "ĠMÃ©d": 7286,
      "Ġcong": 7287,
      "Ġestim": 7288,
      "Ġexag": 7289,
      "Ġexerc": 7290,
      "ĠAouda": 7291,
      "aye": 7292,
      "anges": 7293,
      "ĠdÃ©sapp": 7294,
      "Ġcade": 7295,
      "Ã©motion": 7296,
      "ĠpayÃ©": 7297,
      "Ġcentaines": 7298,
      "Ġmurailles": 7299,
      "Ġvitres": 7300,
      "ĠWilson": 7301,
      "Ġrenoncer": 7302,
      "ĠÃ©change": 7303,
      "Ġpermit": 7304,
      "affection": 7305,
      "Ġramener": 7306,
      "Ġchevalier": 7307,
      "Ġexplication": 7308,
      "ĠfixÃ©": 7309,
      "interro": 7310,
      "envoyer": 7311,
      "Ġcrev": 7312,
      "ĠappelÃ©": 7313,
      "ĠReine": 7314,
      "ĠdÃ©mon": 7315,
      "ounded": 7316,
      "architecture": 7317,
      "Ġappartenait": 7318,
      "Ã©chapper": 7319,
      "Ġchampion": 7320,
      "Ġconviction": 7321,
      "ĠmÃ©cont": 7322,
      "Ġsilencieuse": 7323,
      "ĠBelcher": 7324,
      "Ġcerveau": 7325,
      "Ã©pouser": 7326,
      "ĠBarrymore": 7327,
      "Ġnaissance": 7328,
      "Ġpiano": 7329,
      "Ġgolfe": 7330,
      "?âĢ¦": 7331,
      "Donc": 7332,
      "My": 7333,
      "iÃ©tÃ©": 7334,
      "Ġloup": 7335,
      "Ġlaine": 7336,
      "enb": 7337,
      "Ġpages": 7338,
      "Ġlaves": 7339,
      "Ġbale": 7340,
      "elait": 7341,
      "Ġled": 7342,
      "auberge": 7343,
      "Ġaval": 7344,
      "Ġavouer": 7345,
      "ĠgÃ©m": 7346,
      "Ġgone": 7347,
      "alda": 7348,
      "agir": 7349,
      "ĠtrÃ©s": 7350,
      "Ġchir": 7351,
      "ĠPi": 7352,
      "ĠLoth": 7353,
      "ĠÃ©glise": 7354,
      "Ġserious": 7355,
      "Ġsupr": 7356,
      "Ġailes": 7357,
      "Ġclaire": 7358,
      "ĠmontrÃ©": 7359,
      "Ã©lÃ¨ne": 7360,
      "Ġchercha": 7361,
      "Ġarrivaient": 7362,
      "Ġcharp": 7363,
      "Ġsoeurs": 7364,
      "Ġchevel": 7365,
      "Ġtraversa": 7366,
      "Ġgross": 7367,
      "ĠWest": 7368,
      "Ġteint": 7369,
      "Ġgenou": 7370,
      "ĠÃ©lÃ¨ves": 7371,
      "Ġtaking": 7372,
      "Ġcroyant": 7373,
      "Ġgalant": 7374,
      "Ġbriques": 7375,
      "ĠlibÃ©r": 7376,
      "Ġcolline": 7377,
      "ĠHenri": 7378,
      "herbe": 7379,
      "herlock": 7380,
      "Ġapporter": 7381,
      "Ġdistinguait": 7382,
      "Ġjoyeuse": 7383,
      "Ġsecoua": 7384,
      "Ġwork": 7385,
      "Ġorgueil": 7386,
      "Ġtriomphe": 7387,
      "Ġparvint": 7388,
      "Ġproduisit": 7389,
      "Ġmassif": 7390,
      "Ġobtenu": 7391,
      "ĠpaupiÃ¨res": 7392,
      "ĠdÃ©finit": 7393,
      "ĠcathÃ©drale": 7394,
      ".)": 7395,
      "Fogg": 7396,
      "del": 7397,
      "laient": 7398,
      "Ġ7": 7399,
      "Ã©ge": 7400,
      "Ġcant": 7401,
      "Ġmand": 7402,
      "Ġdear": 7403,
      "Ġfore": 7404,
      "ilis": 7405,
      "ĠnaÃ¯": 7406,
      "Ġvides": 7407,
      "ĠbÃ©g": 7408,
      "ĠjÃ©s": 7409,
      "avers": 7410,
      "Ġtrad": 7411,
      "Ġmeans": 7412,
      "apt": 7413,
      "ĠLodovico": 7414,
      "Ġmarque": 7415,
      "Ġamong": 7416,
      "ĠJack": 7417,
      "ancien": 7418,
      "Ġdonnai": 7419,
      "Ġvoice": 7420,
      "Ġportaient": 7421,
      "ĠcoÃ»t": 7422,
      "Ġadop": 7423,
      "Ġstyle": 7424,
      "ĠrÃ©sign": 7425,
      "Ġavantage": 7426,
      "Ġsaisi": 7427,
      "meralda": 7428,
      "Ġrefr": 7429,
      "Ġtourb": 7430,
      "Ġlevai": 7431,
      "Ġoccasions": 7432,
      "Ġorders": 7433,
      "Ġbarque": 7434,
      "Ġballes": 7435,
      "Ġfixement": 7436,
      "ĠrÃ©giment": 7437,
      "ĠpressÃ©": 7438,
      "Ġactions": 7439,
      "ĠÃ©mu": 7440,
      "Ġgouverneur": 7441,
      "Ġbonnet": 7442,
      "Ġimprud": 7443,
      "Ġsinistre": 7444,
      "Ġvoiles": 7445,
      "Ġcraignais": 7446,
      "Ġmagasin": 7447,
      "ĠpoignÃ©e": 7448,
      "ĠSansever": 7449,
      "Ġrarement": 7450,
      "Ġperfect": 7451,
      "Ġsoigneusement": 7452,
      "ĠdÃ©vouement": 7453,
      "ĠpropriÃ©taire": 7454,
      "ĠLothian": 7455,
      "ĠSanseverina": 7456,
      "Tenez": 7457,
      "Trois": 7458,
      "dou": 7459,
      "garde": 7460,
      "hire": 7461,
      "ium": 7462,
      "rouver": 7463,
      "tÃ©s": 7464,
      "Ġ4": 7465,
      "Ġpendre": 7466,
      "Ġsonna": 7467,
      "onom": 7468,
      "Ġmens": 7469,
      "Ġmention": 7470,
      "ĠfÃ©vrier": 7471,
      "Ġnar": 7472,
      "Ġvins": 7473,
      "ĠvoÃ»te": 7474,
      "ĠbÃ©": 7475,
      "Ġbav": 7476,
      "ĠbÃ¢": 7477,
      "Ġbourd": 7478,
      "Ġroses": 7479,
      "Ġronde": 7480,
      "ĠhÃ´te": 7481,
      "usques": 7482,
      "Ġprouver": 7483,
      "Ġparis": 7484,
      "Ġnext": 7485,
      "ĠÃ©tendue": 7486,
      "Ġchaude": 7487,
      "Ġchild": 7488,
      "abe": 7489,
      "Ġwal": 7490,
      "impos": 7491,
      "ĠCol": 7492,
      "Ġyet": 7493,
      "Ã®ch": 7494,
      "Ġproche": 7495,
      "Ġcroit": 7496,
      "Ġcarte": 7497,
      "Ġpouvions": 7498,
      "raÃ®ch": 7499,
      "Ġconserver": 7500,
      "Ã©dit": 7501,
      "ows": 7502,
      "Ġabove": 7503,
      "Ġattir": 7504,
      "Ġvoyons": 7505,
      "obst": 7506,
      "Ġcouch": 7507,
      "rette": 7508,
      "Ġaurais": 7509,
      "embarcation": 7510,
      "ousses": 7511,
      "aillir": 7512,
      "Ġconfort": 7513,
      "ĠdÃ©bris": 7514,
      "Ġroues": 7515,
      "Ġrocher": 7516,
      "Ġbourreau": 7517,
      "Ġcouvent": 7518,
      "ĠfixÃ©s": 7519,
      "Ġusage": 7520,
      "Ġesprits": 7521,
      "Ġplaces": 7522,
      "Ġrapporter": 7523,
      "Ġgravement": 7524,
      "Ġlisait": 7525,
      "ĠÃ©tonnÃ©e": 7526,
      "Ġemm": 7527,
      "Ġsoutenir": 7528,
      "Ã©loigner": 7529,
      "lantique": 7530,
      "ĠconsÃ©quence": 7531,
      "ĠcessÃ©": 7532,
      "ologie": 7533,
      "Ġbarbe": 7534,
      "Ġbouteilles": 7535,
      "Ġbraves": 7536,
      "Ġdiamants": 7537,
      "Ġobstacle": 7538,
      "ĠSeine": 7539,
      "Ġinstruments": 7540,
      "adressant": 7541,
      "Ãītait": 7542,
      "Ġpromptement": 7543,
      "ĠLucas": 7544,
      "ription": 7545,
      "Ġnovembre": 7546,
      "Ġphysique": 7547,
      "Chapitre": 7548,
      "Tiens": 7549,
      "oeur": 7550,
      "pens": 7551,
      "suite": 7552,
      "voir": 7553,
      "Ġtue": 7554,
      "Ġquad": 7555,
      "Ġnus": 7556,
      "Ġlater": 7557,
      "Ġlass": 7558,
      "aisait": 7559,
      "omac": 7560,
      "emort": 7561,
      "sed": 7562,
      "Ġchances": 7563,
      "onnemort": 7564,
      "Ġalone": 7565,
      "ĠLow": 7566,
      "Ġbrand": 7567,
      "ĠAt": 7568,
      "ertin": 7569,
      "Ġdevrait": 7570,
      "Ġwhose": 7571,
      "Ġmainten": 7572,
      "Ġ?âĢ¦": 7573,
      "Ġimpl": 7574,
      "Ġvenger": 7575,
      "ĠregardÃ©": 7576,
      "ĠTabor": 7577,
      "Ġdonnez": 7578,
      "ĠdÃ©sordre": 7579,
      "auvre": 7580,
      "ĠdÃ©coup": 7581,
      "Ġvieil": 7582,
      "that": 7583,
      "Ġadieu": 7584,
      "ressions": 7585,
      "Ġsortant": 7586,
      "auraient": 7587,
      "Ã§ade": 7588,
      "Ġverrez": 7589,
      "Ġvoler": 7590,
      "Ġvolume": 7591,
      "Ġconfess": 7592,
      "Ġrefuge": 7593,
      "ĠcheminÃ©es": 7594,
      "ĠfaÃ§ade": 7595,
      "Pourtant": 7596,
      "ĠoccupÃ©e": 7597,
      "Ġruin": 7598,
      "ĠdÃ©sirais": 7599,
      "ĠdÃ©sespÃ©rÃ©": 7600,
      "ĠsiÃ¨cles": 7601,
      "Ġessayer": 7602,
      "Ġgraves": 7603,
      "ĠhÃ©riss": 7604,
      "Ġcontenta": 7605,
      "Ġmagnifiques": 7606,
      "Ġfranchir": 7607,
      "Ġadmiration": 7608,
      "Ġacheter": 7609,
      "Ġchasseur": 7610,
      "Ġmuet": 7611,
      "ĠÃ©quip": 7612,
      "admiration": 7613,
      "Ġsouffrances": 7614,
      "oureusement": 7615,
      "Ġivre": 7616,
      "Ġyourself": 7617,
      "GE": 7618,
      "TI": 7619,
      "Venez": 7620,
      "cs": 7621,
      "cour": 7622,
      "gles": 7623,
      "voix": 7624,
      "ĠdÃ®n": 7625,
      "Ġlieux": 7626,
      "Ġpower": 7627,
      "onf": 7628,
      "Ġcasser": 7629,
      "reign": 7630,
      "entrai": 7631,
      "itz": 7632,
      "Ġvir": 7633,
      "ories": 7634,
      "Ġhang": 7635,
      "Ġsein": 7636,
      "Ġpourp": 7637,
      "icien": 7638,
      "ĠPalais": 7639,
      "ĠLid": 7640,
      "Ġcrav": 7641,
      "Ġcrise": 7642,
      "Ġought": 7643,
      "Ġserra": 7644,
      "ensÃ©": 7645,
      "issue": 7646,
      "Ġmarri": 7647,
      "ĠamÃ©ric": 7648,
      "ĠdonnÃ©e": 7649,
      "odes": 7650,
      "ĠcoupÃ©": 7651,
      "ĠÃ©poux": 7652,
      "ĠdÃ©cour": 7653,
      "Ġentreten": 7654,
      "Ġclairement": 7655,
      "assez": 7656,
      "Ġvisites": 7657,
      "Ġherbes": 7658,
      "Ġservit": 7659,
      "Ġconvient": 7660,
      "Ġrevinrent": 7661,
      "Ġcann": 7662,
      "Ġpromenait": 7663,
      "Ġchemins": 7664,
      "Ġfusils": 7665,
      "Ġpoches": 7666,
      "Ġguet": 7667,
      "Ġtaches": 7668,
      "Ġhistoires": 7669,
      "Ġhalet": 7670,
      "Ġhabitudes": 7671,
      "landais": 7672,
      "Ġcordes": 7673,
      "Ġanglaise": 7674,
      "Ġembarras": 7675,
      "Ġmeurtre": 7676,
      "Ġrecherches": 7677,
      "Ã©levait": 7678,
      "Ġphilosophe": 7679,
      "Ġquatorze": 7680,
      "Ġballon": 7681,
      "Ġsympathie": 7682,
      "Ġobscure": 7683,
      "Ġdissip": 7684,
      "ĠProvidence": 7685,
      "AS": 7686,
      "To": 7687,
      "oques": 7688,
      "rance": 7689,
      "uant": 7690,
      "Ġdre": 7691,
      "Ġpis": 7692,
      "Ġsend": 7693,
      "Ġsours": 7694,
      "Ġsci": 7695,
      "Ġstreet": 7696,
      "Ġcim": 7697,
      "Ġcave": 7698,
      "Ġcaill": 7699,
      "Ġaw": 7700,
      "Ġtaire": 7701,
      "Ġtirait": 7702,
      "ark": 7703,
      "Ġvan": 7704,
      "Ġriait": 7705,
      "ĠhaÃ¯": 7706,
      "urch": 7707,
      "Ġenem": 7708,
      "Ã¨bre": 7709,
      "Ġavou": 7710,
      "Ġpast": 7711,
      "Ġseem": 7712,
      "ĠÃ©tourd": 7713,
      "Ġplaire": 7714,
      "abb": 7715,
      "onnes": 7716,
      "ĠsongÃ©": 7717,
      "ĠCresc": 7718,
      "ardins": 7719,
      "uere": 7720,
      "illaient": 7721,
      "Ġdisent": 7722,
      "Ġfray": 7723,
      "Ġfranchement": 7724,
      "ĠrÃ©pÃ¨te": 7725,
      "Ġpassport": 7726,
      "assÃ©s": 7727,
      "Ġcouple": 7728,
      "Ġsentant": 7729,
      "Ġcapt": 7730,
      "iquait": 7731,
      "Ġsourde": 7732,
      "Ġreviend": 7733,
      "Ġinspir": 7734,
      "Ġoffici": 7735,
      "iterran": 7736,
      "Ġ14": 7737,
      "Ġfatal": 7738,
      "Ġpaliss": 7739,
      "ĠbÃ¢ton": 7740,
      "ĠprÃªtres": 7741,
      "entendais": 7742,
      "Ġtapiss": 7743,
      "ĠYour": 7744,
      "Ġmagnific": 7745,
      "tructions": 7746,
      "Ġdevoirs": 7747,
      "appeler": 7748,
      "Ġexcellente": 7749,
      "Ġconsolation": 7750,
      "Ġdisput": 7751,
      "Ġordinairement": 7752,
      "espÃ©rance": 7753,
      "ĠvÃªtu": 7754,
      "loge": 7755,
      "ĠmystÃ©rieux": 7756,
      "Ġgibier": 7757,
      "Ġanswered": 7758,
      "ĠEsmeralda": 7759,
      "ĠExcell": 7760,
      "Ġperspective": 7761,
      "enbrock": 7762,
      "ĠLidenbrock": 7763,
      "Aux": 7764,
      "Certes": 7765,
      "How": 7766,
      "aw": 7767,
      "gg": 7768,
      "Ġdil": 7769,
      "Ġluis": 7770,
      "Ġlight": 7771,
      "enouill": 7772,
      "Ġty": 7773,
      "Ġtitre": 7774,
      "ination": 7775,
      "Ġnoy": 7776,
      "Ġlecteur": 7777,
      "ceau": 7778,
      "Ġparent": 7779,
      "Ġparal": 7780,
      "Ġpourvu": 7781,
      "Ġeight": 7782,
      "prop": 7783,
      "acter": 7784,
      "ĠCacambo": 7785,
      "ardon": 7786,
      "Ġcraint": 7787,
      "Ġserions": 7788,
      "appes": 7789,
      "Ġparts": 7790,
      "ĠGriff": 7791,
      "Quasimodo": 7792,
      "ĠÃ©crite": 7793,
      "Ġattitude": 7794,
      "Ġfortes": 7795,
      "Ġreproche": 7796,
      "Ġcolonie": 7797,
      "Ġprofound": 7798,
      "Ġaffreuse": 7799,
      "ĠintÃ©rieur": 7800,
      "Ġconnue": 7801,
      "Ġsouffrait": 7802,
      "ĠÃ©vanou": 7803,
      "Ġexcuse": 7804,
      "Ġtranquilles": 7805,
      "Ġroche": 7806,
      "ĠFrench": 7807,
      "Ġquittait": 7808,
      "Ġapparaissait": 7809,
      "habit": 7810,
      "Ġpapiers": 7811,
      "Ġpuissante": 7812,
      "ĠdÃ©guis": 7813,
      "Ġrencontra": 7814,
      "Ġobservations": 7815,
      "Ġpoisson": 7816,
      "Ġimportante": 7817,
      "ĠobligÃ©e": 7818,
      "ĠÃ©normes": 7819,
      "ĠhÃ©rit": 7820,
      "ĠforcÃ©e": 7821,
      "ĠarmÃ©s": 7822,
      "Ġdemeurer": 7823,
      "ĠprÃ©tend": 7824,
      "ĠespÃ¨ces": 7825,
      "Ġgentlemen": 7826,
      "Ġgouttes": 7827,
      "Ġflammes": 7828,
      "ĠrÃ©unis": 7829,
      "ogna": 7830,
      "Ġennemi": 7831,
      "ĠcÃ©der": 7832,
      "ĠaiguÃ«": 7833,
      "Ġvoisinage": 7834,
      "ĠSeigneur": 7835,
      "ĠpossÃ©dait": 7836,
      "Ġaveugle": 7837,
      "Ġdouloureuse": 7838,
      "Ġmercier": 7839,
      "Ġfosses": 7840,
      "Ġpleasure": 7841,
      "ĠrafraÃ®ch": 7842,
      "ividu": 7843,
      "Ġtroupeau": 7844,
      "Ġcarrosse": 7845,
      "George": 7846,
      "Hans": 7847,
      "over": 7848,
      "rop": 7849,
      "Ġ-": 7850,
      "ĠÃªtres": 7851,
      "Ġdura": 7852,
      "ĠlanÃ§a": 7853,
      "Ġsiens": 7854,
      "Ġsight": 7855,
      "Ġcend": 7856,
      "Ġcand": 7857,
      "Ġcessa": 7858,
      "Ġtot": 7859,
      "Ġviend": 7860,
      "Ġbete": 7861,
      "Ġhoch": 7862,
      "Ġquerelle": 7863,
      "uraient": 7864,
      "attre": 7865,
      "Ã¨ce": 7866,
      "ĠpriÃ¨re": 7867,
      "ouvert": 7868,
      "oiselles": 7869,
      "Ã©colier": 7870,
      "Ġsale": 7871,
      "Ġbrun": 7872,
      "Ġserrait": 7873,
      "ither": 7874,
      "odeur": 7875,
      "ichaud": 7876,
      "ĠÃ©pargn": 7877,
      "Ġvoyaient": 7878,
      "Ġclaqu": 7879,
      "Ġaccount": 7880,
      "Ġsouriait": 7881,
      "Ġsolitaire": 7882,
      "Ġrevient": 7883,
      "Ġcontinuellement": 7884,
      "ĠapprÃ©c": 7885,
      "ething": 7886,
      "Ġplaisait": 7887,
      "ĠÃ©clats": 7888,
      "Ġrevenant": 7889,
      "igeait": 7890,
      "Ġrentrait": 7891,
      "Ġretournant": 7892,
      "Ġressort": 7893,
      "ĠinfÃ©rieure": 7894,
      "Ġseeing": 7895,
      "Ġconsider": 7896,
      "Ġpape": 7897,
      "Ġpareilles": 7898,
      "ĠdisposÃ©": 7899,
      "Ġnombreuses": 7900,
      "Ġbattu": 7901,
      "azin": 7902,
      "ĠparticuliÃ¨re": 7903,
      "ĠessayÃ©": 7904,
      "ĠstupÃ©f": 7905,
      "ĠembarrassÃ©": 7906,
      "Ġoiseau": 7907,
      "Ġyear": 7908,
      "Ġfool": 7909,
      "Ġbrouillard": 7910,
      "ograph": 7911,
      "Ġunderst": 7912,
      "Ġlucarne": 7913,
      "'ll": 7914,
      "Maheu": 7915,
      "Pres": 7916,
      "Porthos": 7917,
      "Sir": 7918,
      "ds": 7919,
      "dit": 7920,
      "ipl": 7921,
      "uil": 7922,
      "onÃ§ant": 7923,
      "influence": 7924,
      "armÃ©e": 7925,
      "Ġnet": 7926,
      "Ġlav": 7927,
      "Ġreally": 7928,
      "alie": 7929,
      "apon": 7930,
      "ney": 7931,
      "Ġgrise": 7932,
      "ĠconÃ§": 7933,
      "ĠAxel": 7934,
      "Ġsum": 7935,
      "Ġsucre": 7936,
      "ĠEdie": 7937,
      "ĠamitiÃ©": 7938,
      "ĠGiletti": 7939,
      "Ġtrouvez": 7940,
      "upport": 7941,
      "ĠlaissÃ©e": 7942,
      "Ġdouzaine": 7943,
      "Ġsalua": 7944,
      "Ġservices": 7945,
      "ĠmisÃ¨re": 7946,
      "ĠsoupÃ§ons": 7947,
      "ĠÃ©chant": 7948,
      "Ġexclam": 7949,
      "Ã¨vement": 7950,
      "Ġvoitures": 7951,
      "Ġinfort": 7952,
      "cepteur": 7953,
      "ĠplacÃ©e": 7954,
      "Ġrobes": 7955,
      "Ġpusse": 7956,
      "Ġeye": 7957,
      "expliquer": 7958,
      "ĠÃ©clairÃ©e": 7959,
      "Inde": 7960,
      "Ġlogement": 7961,
      "humanitÃ©": 7962,
      "Ġlooking": 7963,
      "Ġprincipal": 7964,
      "Ġmagistr": 7965,
      "ĠÃ©loignÃ©": 7966,
      "Ġmisere": 7967,
      "ĠÃ©bran": 7968,
      "espÃ©rais": 7969,
      "Ġaffirm": 7970,
      "oÃ¯s": 7971,
      "Ã«l": 7972,
      "Ġcatastr": 7973,
      "Ġvoleur": 7974,
      "ĠhÃ¢ta": 7975,
      "importance": 7976,
      "aughter": 7977,
      "Ġmoulin": 7978,
      "eloppe": 7979,
      "Ġseveral": 7980,
      "Conseil": 7981,
      "Jusqu": 7982,
      "lis": 7983,
      "tif": 7984,
      "Ġpale": 7985,
      "Ġsot": 7986,
      "onville": 7987,
      "Ġaf": 7988,
      "ani": 7989,
      "Ġtables": 7990,
      "Ġfas": 7991,
      "issez": 7992,
      "Ġneu": 7993,
      "ĠvÃ©n": 7994,
      "tect": 7995,
      "Ġroman": 7996,
      "Ġunes": 7997,
      "Ġuniquement": 7998,
      "ating": 7999,
      "Ã¨tes": 8000,
      "ĠÃ©toiles": 8001,
      "Ġplaign": 8002,
      "Ġtrot": 8003,
      "ĠPo": 8004,
      "ulÃ©": 8005,
      "illant": 8006,
      "ĠSeure": 8007,
      "ĠStreet": 8008,
      "ĠBourg": 8009,
      "ĠNouv": 8010,
      "Ġmalaise": 8011,
      "Ã©rieurs": 8012,
      "Ġsouc": 8013,
      "Ġavantages": 8014,
      "Ġsoll": 8015,
      "Ġverr": 8016,
      "Ġshew": 8017,
      "Ġconfir": 8018,
      "ommage": 8019,
      "ustri": 8020,
      "Ġairs": 8021,
      "ĠGrÃ¢ce": 8022,
      "ĠgardÃ©": 8023,
      "Ġpaysans": 8024,
      "ennem": 8025,
      "ĠrÃ©comp": 8026,
      "clÃ©s": 8027,
      "Ġgentils": 8028,
      "ĠconsidÃ©rer": 8029,
      "ĠpÃ¢les": 8030,
      "Ġpareils": 8031,
      "Ġvastes": 8032,
      "ĠrÃªves": 8033,
      "envie": 8034,
      "Ġgreatly": 8035,
      "ĠvÃ©ritables": 8036,
      "Ġracontait": 8037,
      "Ġrempli": 8038,
      "Ġsongea": 8039,
      "ĠemployÃ©": 8040,
      "ĠsinguliÃ¨rement": 8041,
      "Ġlampes": 8042,
      "Ġcavalier": 8043,
      "Ġreconnaissant": 8044,
      "Ġfranchi": 8045,
      "Ġlargement": 8046,
      "ĠbÃ¢timents": 8047,
      "Ġkept": 8048,
      "Ġvoyageur": 8049,
      "ĠÃ©quipage": 8050,
      "oeuvre": 8051,
      "Ġturned": 8052,
      "Ġterrestre": 8053,
      "uillaume": 8054,
      "Ġextreme": 8055,
      "Ġdespair": 8056,
      "ĠdÃ©marche": 8057,
      "ĠingÃ©n": 8058,
      "Ġfantaisie": 8059,
      "ĠcrÃ¢ne": 8060,
      "ĠFranklin": 8061,
      "enzi": 8062,
      "Ġchirurg": 8063,
      "ĠCrescenzi": 8064,
      "ĠSeurel": 8065,
      "Felton": 8066,
      "Me": 8067,
      "Mathilde": 8068,
      "iot": 8069,
      "iÃ©es": 8070,
      "oad": 8071,
      "ook": 8072,
      "ross": 8073,
      "Ġdaughter": 8074,
      "Ġpit": 8075,
      "Ġpaire": 8076,
      "Ġstre": 8077,
      "ĠsÃ©p": 8078,
      "ĠsÃ¨che": 8079,
      "Ġcole": 8080,
      "Ġtone": 8081,
      "ini": 8082,
      "inqu": 8083,
      "arine": 8084,
      "ĠvÃ®mes": 8085,
      "Ġbottes": 8086,
      "Ġjardins": 8087,
      "omen": 8088,
      "Ġros": 8089,
      "ĠrÃ´": 8090,
      "ousquet": 8091,
      "Ġharm": 8092,
      "Ã©tique": 8093,
      "urb": 8094,
      "irais": 8095,
      "aught": 8096,
      "Ġguere": 8097,
      "Ġprends": 8098,
      "ionale": 8099,
      "Ġparaissaient": 8100,
      "Ġseiz": 8101,
      "ĠÃ©tabli": 8102,
      "Ġtrue": 8103,
      "Ġcomble": 8104,
      "Ġwrit": 8105,
      "apl": 8106,
      "ĠCom": 8107,
      "nebres": 8108,
      "Ġmonot": 8109,
      "Ġcroir": 8110,
      "Ġcramp": 8111,
      "Ġexh": 8112,
      "Ġmarteau": 8113,
      "ĠBonnemort": 8114,
      "Ġamener": 8115,
      "ĠrÃ©ussi": 8116,
      "Ġvisages": 8117,
      "Ġcharb": 8118,
      "Ġrevins": 8119,
      "eussent": 8120,
      "Ġconfier": 8121,
      "glout": 8122,
      "Ġdescendant": 8123,
      "Ġdescente": 8124,
      "Ġpoussant": 8125,
      "Ġtableau": 8126,
      "Then": 8127,
      "Ġcraintes": 8128,
      "Ġprofession": 8129,
      "Ġvaguement": 8130,
      "Ġrougit": 8131,
      "Ġendroits": 8132,
      "ĠtÃ©moin": 8133,
      "ĠÃ©tranges": 8134,
      "ĠcachÃ©e": 8135,
      "Ġrejoign": 8136,
      "Ġretomba": 8137,
      "Ġbegin": 8138,
      "Ġpesant": 8139,
      "Ġvictoire": 8140,
      "Ġplantation": 8141,
      "Ġprisonnier": 8142,
      "Ġfavorable": 8143,
      "Ġpirates": 8144,
      "ĠrÃ©volte": 8145,
      "Ġrompre": 8146,
      "ĠattachÃ©": 8147,
      "aucune": 8148,
      "Ġcarried": 8149,
      "ĠRouen": 8150,
      "Ġfabriquer": 8151,
      "immense": 8152,
      "Ġextrem": 8153,
      "Ġmatelots": 8154,
      "Ġsomething": 8155,
      "Ġnumber": 8156,
      "ĠdÃ©sagrÃ©able": 8157,
      "impatience": 8158,
      "Ġchanson": 8159,
      "ĠtÃ©nebres": 8160,
      "Ġcolere": 8161,
      "TE": 8162,
      "aus": 8163,
      "yant": 8164,
      "Ġdate": 8165,
      "Ġsulf": 8166,
      "Ġcoins": 8167,
      "Ġfif": 8168,
      "isÃ©e": 8169,
      "ĠvÃ´tre": 8170,
      "Ġbad": 8171,
      "Ġjuin": 8172,
      "ĠleÃ§ons": 8173,
      "Ġri": 8174,
      "Ġrican": 8175,
      "Ã©tendait": 8176,
      "Ã¨ner": 8177,
      "riche": 8178,
      "oile": 8179,
      "iendrez": 8180,
      "ĠchÃ©rie": 8181,
      "Ġwait": 8182,
      "Ġwood": 8183,
      "ĠMal": 8184,
      "impr": 8185,
      "uisit": 8186,
      "Ġbienveill": 8187,
      "Ġarb": 8188,
      "Ġsugg": 8189,
      "ĠGeorg": 8190,
      "ĠÃ©che": 8191,
      "espace": 8192,
      "Ġpensant": 8193,
      "Ġferons": 8194,
      "Ġsecousse": 8195,
      "oces": 8196,
      "Ġintime": 8197,
      "ĠjetÃ©s": 8198,
      "Ġorigin": 8199,
      "Ġhauts": 8200,
      "Ġinsupport": 8201,
      "Ġfeuille": 8202,
      "Ġdistrib": 8203,
      "Ġhumble": 8204,
      "Ġcomplais": 8205,
      "Ġexprimer": 8206,
      "ĠMarch": 8207,
      "Ġrespons": 8208,
      "Ġsimples": 8209,
      "Ġinvolont": 8210,
      "Ġremarquable": 8211,
      "eufs": 8212,
      "ĠrÃ©gion": 8213,
      "ĠgÃ©nÃ©ralement": 8214,
      "Ġrefusa": 8215,
      "Ġfilet": 8216,
      "ĠcrÃ©atures": 8217,
      "Ġtremblait": 8218,
      "ĠdiffÃ©rentes": 8219,
      "arrivai": 8220,
      "ĠdifficultÃ©s": 8221,
      "Ġpanier": 8222,
      "Ġberge": 8223,
      "Ġentrailles": 8224,
      "Ġnaufrage": 8225,
      "uscule": 8226,
      "Ġpantal": 8227,
      "ĠenchantÃ©": 8228,
      "Ġelse": 8229,
      "Ġsubstance": 8230,
      "Ġtumulte": 8231,
      "intelligence": 8232,
      "Ġletters": 8233,
      "ĠsuprÃªme": 8234,
      "Ġchevelure": 8235,
      "For": 8236,
      "ting": 8237,
      "Ġdig": 8238,
      "Ġpoil": 8239,
      "Ġsuit": 8240,
      "Ġsavaient": 8241,
      "ĠcÃ©t": 8242,
      "ank": 8243,
      "Ġtache": 8244,
      "Ġnue": 8245,
      "Ġbed": 8246,
      "Ġhont": 8247,
      "Ġhache": 8248,
      "ativement": 8249,
      "atives": 8250,
      "head": 8251,
      "Ġgil": 8252,
      "Ġpria": 8253,
      "Ġplumes": 8254,
      "Ġchaises": 8255,
      "Ġwall": 8256,
      "ĠCiel": 8257,
      "Ġfruits": 8258,
      "Ġexist": 8259,
      "Ġserrant": 8260,
      "Ġdevons": 8261,
      "enser": 8262,
      "ĠNether": 8263,
      "ombe": 8264,
      "Ġfuture": 8265,
      "Ġauxquelles": 8266,
      "Ġmanoir": 8267,
      "ĠThe": 8268,
      "Ġcourants": 8269,
      "Ġtouff": 8270,
      "Ġattendit": 8271,
      "Ġeffets": 8272,
      "Ġcrimes": 8273,
      "ellent": 8274,
      "raiment": 8275,
      "ĠdÃ©pense": 8276,
      "aura": 8277,
      "embarqu": 8278,
      "ĠdÃ©ton": 8279,
      "Ġcanne": 8280,
      "Ġescl": 8281,
      "usta": 8282,
      "ĠcontrÃ©e": 8283,
      "Ġrentre": 8284,
      "Ġmenace": 8285,
      "ĠbarriÃ¨re": 8286,
      "Ġtraiter": 8287,
      "ĠreÃ§us": 8288,
      "Ġremarquai": 8289,
      "Chac": 8290,
      "Ġrapides": 8291,
      "ĠrÃ©gions": 8292,
      "vreuse": 8293,
      "ĠsÃ©rieuse": 8294,
      "Ġhorses": 8295,
      "ĠXX": 8296,
      "ĠchargÃ©s": 8297,
      "Ġobserva": 8298,
      "Ġbleus": 8299,
      "Ġbrillant": 8300,
      "outerr": 8301,
      "Ġsudden": 8302,
      "ĠmÃ©th": 8303,
      "Ġreposer": 8304,
      "ĠosÃ©": 8305,
      "Ġconduisit": 8306,
      "Ġarracher": 8307,
      "ĠretirÃ©": 8308,
      "Ġreturned": 8309,
      "Ġnerveux": 8310,
      "Ġappareil": 8311,
      "ĠsecrÃ¨te": 8312,
      "Ġgaillard": 8313,
      "Aucun": 8314,
      "Ġextremely": 8315,
      "ĠNetherfield": 8316,
      "GÃ©dÃ©on": 8317,
      "Mlle": 8318,
      "Marguerite": 8319,
      "cot": 8320,
      "kes": 8321,
      "ĠÃ´": 8322,
      "ĠÃ©rup": 8323,
      "Ġlength": 8324,
      "Ġsut": 8325,
      "reat": 8326,
      "Ġmo": 8327,
      "Ġtamb": 8328,
      "Ġbaleine": 8329,
      "teen": 8330,
      "aste": 8331,
      "Ġrois": 8332,
      "Ġrente": 8333,
      "Ġgri": 8334,
      "Ġgoth": 8335,
      "ageux": 8336,
      "ague": 8337,
      "Ġdanse": 8338,
      "Ġwrite": 8339,
      "Ġsurs": 8340,
      "aper": 8341,
      "apercevoir": 8342,
      "Ã©puis": 8343,
      "ondes": 8344,
      "aged": 8345,
      "Ġarme": 8346,
      "ĠBri": 8347,
      "ĠBomb": 8348,
      "enceinte": 8349,
      "ĠJamais": 8350,
      "Ġmaint": 8351,
      "ĠrÃ©jou": 8352,
      "ctor": 8353,
      "Ġperles": 8354,
      "Ġremise": 8355,
      "ĠTor": 8356,
      "Ġcourb": 8357,
      "Ġdiables": 8358,
      "Ġsoud": 8359,
      "iÃ¨te": 8360,
      "Ġrestai": 8361,
      "ocat": 8362,
      "ĠaccÃ¨s": 8363,
      "Ġflanc": 8364,
      "Ġflancs": 8365,
      "ellis": 8366,
      "Ġcorn": 8367,
      "Ġprises": 8368,
      "Ġaurons": 8369,
      "Ġgloire": 8370,
      "ĠWh": 8371,
      "uyer": 8372,
      "ĠinfÃ©rieur": 8373,
      "Ġproduits": 8374,
      "Ġinvis": 8375,
      "Ġpenchant": 8376,
      "Ġfixe": 8377,
      "Ġdispositions": 8378,
      "Ġprocurer": 8379,
      "Ġchapelle": 8380,
      "Ġgagnait": 8381,
      "Ġmodif": 8382,
      "Ġcouloir": 8383,
      "ĠdiffÃ©rent": 8384,
      "Ġprononc": 8385,
      "humeur": 8386,
      "Ġbecome": 8387,
      "ĠtraÃ®nait": 8388,
      "Ġplaisanterie": 8389,
      "Ġdiamant": 8390,
      "atteindre": 8391,
      "ĠprÃ©cautions": 8392,
      "ĠNaples": 8393,
      "Ġodeur": 8394,
      "regellis": 8395,
      "Ġsourcils": 8396,
      "Ġremercie": 8397,
      "ĠrÃªverie": 8398,
      "Åĵuvre": 8399,
      "Ġgovernor": 8400,
      "ĠMÃ©diterran": 8401,
      "Ġsollic": 8402,
      "ĠMÃ©diterranÃ©e": 8403,
      "Collins": 8404,
      "Kong": 8405,
      "OI": 8406,
      "core": 8407,
      "echer": 8408,
      "gs": 8409,
      "mons": 8410,
      "night": 8411,
      "rages": 8412,
      "uction": 8413,
      "Ġirait": 8414,
      "Ġsqu": 8415,
      "Ġsaign": 8416,
      "Ġsouterr": 8417,
      "reuve": 8418,
      "Ġdead": 8419,
      "Ġfire": 8420,
      "arned": 8421,
      "Ġnid": 8422,
      "Ġnett": 8423,
      "Ġvilles": 8424,
      "Ġvirent": 8425,
      "Ġbig": 8426,
      "Ġbaign": 8427,
      "orage": 8428,
      "ustement": 8429,
      "irrit": 8430,
      "atter": 8431,
      "ĠgÃ¢t": 8432,
      "Ġgorg": 8433,
      "Ġprim": 8434,
      "als": 8435,
      "alent": 8436,
      "Ġparvenir": 8437,
      "avouer": 8438,
      "Ġoeu": 8439,
      "Ġtristes": 8440,
      "Ġpourrions": 8441,
      "Ġwater": 8442,
      "amise": 8443,
      "igine": 8444,
      "ĠCour": 8445,
      "Ġange": 8446,
      "ĠPal": 8447,
      "Ã¢ter": 8448,
      "Ġexiste": 8449,
      "ĠformÃ©": 8450,
      "ĠBeau": 8451,
      "ĠDun": 8452,
      "ĠFouquÃ©": 8453,
      "ĠNÃ©grel": 8454,
      "assaient": 8455,
      "ĠtrouvÃ©e": 8456,
      "ĠtrouvÃ¨rent": 8457,
      "ĠVir": 8458,
      "ĠHong": 8459,
      "ĠTregellis": 8460,
      "raham": 8461,
      "rivet": 8462,
      "ettant": 8463,
      "Ġparlaient": 8464,
      "Ġsenti": 8465,
      "itudes": 8466,
      "Ġcolonne": 8467,
      "Ġprofit": 8468,
      "Ġstood": 8469,
      "ĠminÃ©r": 8470,
      "Ġboug": 8471,
      "Ġmotif": 8472,
      "ĠChÃ©lan": 8473,
      "Ġspend": 8474,
      "Ġfouet": 8475,
      "ĠQuant": 8476,
      "othicaire": 8477,
      "ernelle": 8478,
      "Ġoccupait": 8479,
      "Ġiron": 8480,
      "ĠrefusÃ©": 8481,
      "ĠdÃ©sespÃ©r": 8482,
      "Ġremplir": 8483,
      "Ġcharger": 8484,
      "Ġsecrets": 8485,
      "Avez": 8486,
      "Ġcouler": 8487,
      "ĠdÃ©rob": 8488,
      "Ġpublique": 8489,
      "ĠsÃ©parait": 8490,
      "ĠprÃ©paratifs": 8491,
      "ĠrÃ©veiller": 8492,
      "Ã©chappait": 8493,
      "Ġbaissa": 8494,
      "ĠappuyÃ©": 8495,
      "imagination": 8496,
      "Ġerreur": 8497,
      "inquiÃ©tude": 8498,
      "Ġroyaume": 8499,
      "Ã©coutait": 8500,
      "ĠhÃ´tes": 8501,
      "ĠchaÃ®ne": 8502,
      "Ġmoindres": 8503,
      "ĠFrancis": 8504,
      "Ġlanterne": 8505,
      "Ġadversaire": 8506,
      "Ġondul": 8507,
      "Ġdrawing": 8508,
      "Ġindeed": 8509,
      "ousqueton": 8510,
      "ĠBombay": 8511,
      ".'": 8512,
      "Lys": 8513,
      "ME": 8514,
      "Va": 8515,
      "bber": 8516,
      "gne": 8517,
      "ÃĪ": 8518,
      "Ġign": 8519,
      "ĠlÃ¢ch": 8520,
      "Ġsk": 8521,
      "ouette": 8522,
      "ouci": 8523,
      "Ġcut": 8524,
      "ĠcitÃ©": 8525,
      "Ġfull": 8526,
      "arbre": 8527,
      "elet": 8528,
      "ĠjurÃ©": 8529,
      "ori": 8530,
      "Ġlead": 8531,
      "urÃ©e": 8532,
      "Ġge": 8533,
      "Ġrelever": 8534,
      "Ġpratique": 8535,
      "aviez": 8536,
      "Ġoctobre": 8537,
      "Ġtrott": 8538,
      "andes": 8539,
      "Ġpourriez": 8540,
      "Ġthous": 8541,
      "Ġmajor": 8542,
      "ĠdÃ©dain": 8543,
      "Ġconj": 8544,
      "Ġbrune": 8545,
      "Ġbrume": 8546,
      "ĠAs": 8547,
      "Ġseriez": 8548,
      "Ġdemoiselle": 8549,
      "ĠDeux": 8550,
      "appart": 8551,
      "Ġpartage": 8552,
      "Ġconten": 8553,
      "Ġcontente": 8554,
      "ancre": 8555,
      "ĠVoici": 8556,
      "ĠHÃ©las": 8557,
      "ĠTamise": 8558,
      "Ġdemandant": 8559,
      "ĠappÃ©t": 8560,
      "ĠdÃ©cision": 8561,
      "Ġvision": 8562,
      "Ġprofiter": 8563,
      "ĠmatÃ©ri": 8564,
      "Ġcapitale": 8565,
      "Ġcertitude": 8566,
      "Ġrevol": 8567,
      "ibule": 8568,
      "ĠWilliam": 8569,
      "Ġoccur": 8570,
      "Ġpaysage": 8571,
      "ĠMary": 8572,
      "grat": 8573,
      "ĠcausÃ©": 8574,
      "Ġplaisirs": 8575,
      "Ġappartement": 8576,
      "Ġsoulagement": 8577,
      "ĠsÃ©rie": 8578,
      "Ġemployer": 8579,
      "Ġmeilleurs": 8580,
      "ĠgravitÃ©": 8581,
      "Ġimmobiles": 8582,
      "ĠdevinÃ©": 8583,
      "ĠÃ©chappÃ©": 8584,
      "Ġsoif": 8585,
      "Ġardente": 8586,
      "Ġvaisseaux": 8587,
      "Ġachet": 8588,
      "ĠcommenÃ§aient": 8589,
      "Ġextraord": 8590,
      "Ouest": 8591,
      "ĠÃ©crivit": 8592,
      "ĠmystÃ©rieuse": 8593,
      "ĠRobin": 8594,
      "Ġslight": 8595,
      "ĠmÃ©lancolique": 8596,
      "Autriche": 8597,
      "ĠÃ©nerg": 8598,
      "Phileas": 8599,
      "ĠrecommenÃ§a": 8600,
      "Ġrenseignements": 8601,
      "ĠphÃ©nomÃ¨ne": 8602,
      "ĠcÃ©rÃ©monie": 8603,
      "ĠcrÃ©puscule": 8604,
      "Ġcendres": 8605,
      "Ġgentilshommes": 8606,
      "IL": 8607,
      "OM": 8608,
      "Sous": 8609,
      "aÃ§ait": 8610,
      "heurs": 8611,
      "jection": 8612,
      "vel": 8613,
      "Ġ8": 8614,
      "Ġec": 8615,
      "ĠlancÃ©": 8616,
      "Ġlugu": 8617,
      "Ġpage": 8618,
      "oule": 8619,
      "rebber": 8620,
      "itations": 8621,
      "ĠnÃ©": 8622,
      "Ġbir": 8623,
      "Ġboss": 8624,
      "Ġbasses": 8625,
      "Ġjette": 8626,
      "Ġhaleine": 8627,
      "Ġgam": 8628,
      "riÃ¨me": 8629,
      "ospit": 8630,
      "onniers": 8631,
      "amitiÃ©": 8632,
      "ĠMons": 8633,
      "ĠMason": 8634,
      "acÃ©e": 8635,
      "ĠPri": 8636,
      "Ġsert": 8637,
      "ensions": 8638,
      "ayait": 8639,
      "Ġhear": 8640,
      "Ġpartait": 8641,
      "ĠRich": 8642,
      "Ġappela": 8643,
      "ĠabbÃ©": 8644,
      "Ġreproches": 8645,
      "Ġportail": 8646,
      "Ġflatt": 8647,
      "Ġcorp": 8648,
      "Ġblood": 8649,
      "Ã©milly": 8650,
      "Ġsuivaient": 8651,
      "Ġenvah": 8652,
      "itty": 8653,
      "Ġshill": 8654,
      "ĠtraversÃ©": 8655,
      "Ġoffre": 8656,
      "Ġpoings": 8657,
      "Ġdroits": 8658,
      "Ġannoncer": 8659,
      "Ġajouter": 8660,
      "Ġmorne": 8661,
      "Ġarrond": 8662,
      "Ġacte": 8663,
      "Ġtremblement": 8664,
      "ĠirrÃ©s": 8665,
      "Ġdiriger": 8666,
      "Ġanyone": 8667,
      "Ġsoulier": 8668,
      "Ġtentative": 8669,
      "Ġquinzaine": 8670,
      "Ġremonta": 8671,
      "Ġremontait": 8672,
      "entrepr": 8673,
      "Ġpardonner": 8674,
      "Ġobliged": 8675,
      "Ġnourrice": 8676,
      "Ġtravaillait": 8677,
      "Ġpoursuivre": 8678,
      "ĠespÃ©rait": 8679,
      "Ġchasseurs": 8680,
      "Plusieurs": 8681,
      "Ġturn": 8682,
      "Ġsamedi": 8683,
      "ĠquatriÃ¨me": 8684,
      "ĠindiffÃ©rence": 8685,
      "Ġtressaillit": 8686,
      "Ġdistraire": 8687,
      "Ġlueurs": 8688,
      "effroi": 8689,
      "Ġinconnue": 8690,
      "ĠÃ©nergie": 8691,
      "Ġmultipl": 8692,
      "QUE": 8693,
      "Ġempris": 8694,
      "entraÃ®n": 8695,
      "Ġplaira": 8696,
      "ĠLowood": 8697,
      "Meaulnes": 8698,
      "ziÃ¨me": 8699,
      "Ġdog": 8700,
      "oudre": 8701,
      "Ġcot": 8702,
      "Ġmem": 8703,
      "Ġmasses": 8704,
      "Ġfal": 8705,
      "ĠfiÃ©": 8706,
      "Ġbur": 8707,
      "omn": 8708,
      "Ġranc": 8709,
      "Ġrires": 8710,
      "ĠhÃ´tel": 8711,
      "Ġhiver": 8712,
      "Ã©trange": 8713,
      "Ġparall": 8714,
      "avag": 8715,
      "Ġwished": 8716,
      "ambre": 8717,
      "ĠMaintenant": 8718,
      "ĠMichaud": 8719,
      "uth": 8720,
      "apothicaire": 8721,
      "Ġtoits": 8722,
      "Ġalong": 8723,
      "ĠSud": 8724,
      "ĠdÃ©li": 8725,
      "Ġexasp": 8726,
      "ĠAnd": 8727,
      "ĠDiana": 8728,
      "Ġallure": 8729,
      "Ġtrouverait": 8730,
      "Ġcontenir": 8731,
      "ortez": 8732,
      "ancÃ©s": 8733,
      "Ġdemandais": 8734,
      "Ġcoupe": 8735,
      "Ġsentin": 8736,
      "Ġreproch": 8737,
      "Ġmontant": 8738,
      "ĠcherchÃ©": 8739,
      "Ġbouff": 8740,
      "Ġbougie": 8741,
      "Ġvives": 8742,
      "ereur": 8743,
      "Ġpleurait": 8744,
      "Ġverres": 8745,
      "Ġspent": 8746,
      "Ġindisc": 8747,
      "ington": 8748,
      "ĠGrÃ¨ve": 8749,
      "Ġinterest": 8750,
      "ĠextrÃ©mitÃ©": 8751,
      "Ġjournaux": 8752,
      "Ġsignes": 8753,
      "Ġmousta": 8754,
      "ĠdÃ©cidÃ©ment": 8755,
      "anÃ§aient": 8756,
      "Ġconvenait": 8757,
      "Ġabandon": 8758,
      "Ġcoulait": 8759,
      "Ġretrouva": 8760,
      "ĠretrouvÃ©": 8761,
      "Att": 8762,
      "ĠrÃ©veilla": 8763,
      "Ġlargeur": 8764,
      "Ġmilliers": 8765,
      "Ġglissa": 8766,
      "Ġfournir": 8767,
      "ophy": 8768,
      "Ġjaunes": 8769,
      "ĠeffrayÃ©": 8770,
      "rÃ©tion": 8771,
      "ĠallumÃ©": 8772,
      "Ġadresser": 8773,
      "Mrs": 8774,
      "Ġbandes": 8775,
      "ĠnaufragÃ©s": 8776,
      "ĠdÃ©livrance": 8777,
      "Ġremarque": 8778,
      "Ġapplaud": 8779,
      "Adieu": 8780,
      "Ġremercier": 8781,
      "Ã©lÃ©gr": 8782,
      "Quelquefois": 8783,
      "ĠMessieurs": 8784,
      "ĠItaly": 8785,
      "Ã©curie": 8786,
      "Ã©pouvante": 8787,
      "ĠmarÃ©chale": 8788,
      "delÃł": 8789,
      "Ġchirurgien": 8790,
      "Ġthousand": 8791,
      "Ġmoustaches": 8792,
      "Bingley": 8793,
      "With": 8794,
      "oÃ®tre": 8795,
      "uel": 8796,
      "Ġland": 8797,
      "Ġpin": 8798,
      "Ġpendu": 8799,
      "Ġsorc": 8800,
      "Ġcache": 8801,
      "quÃ©rir": 8802,
      "Ġmel": 8803,
      "Ġtart": 8804,
      "Ġtente": 8805,
      "Ġtendait": 8806,
      "inq": 8807,
      "isant": 8808,
      "Ġbus": 8809,
      "Ã©tÃ©s": 8810,
      "memes": 8811,
      "alous": 8812,
      "Ġpars": 8813,
      "Ġparoi": 8814,
      "Ġparurent": 8815,
      "Ġchim": 8816,
      "olue": 8817,
      "olÃ©on": 8818,
      "ĠCoqu": 8819,
      "otid": 8820,
      "illement": 8821,
      "ĠPet": 8822,
      "ĠLheureux": 8823,
      "ored": 8824,
      "opÃ©": 8825,
      "trois": 8826,
      "ĠEm": 8827,
      "ĠFleur": 8828,
      "ĠJock": 8829,
      "ĠNo": 8830,
      "ĠGardiner": 8831,
      "Ġlongitude": 8832,
      "Ġjambe": 8833,
      "Ġaider": 8834,
      "ocation": 8835,
      "Ġvoulus": 8836,
      "ĠblÃ¢": 8837,
      "Ġagent": 8838,
      "Ġagitation": 8839,
      "ĠdÃ©test": 8840,
      "ĠvolÃ©": 8841,
      "Ġconfusion": 8842,
      "Ġoffrit": 8843,
      "Ġlieutenant": 8844,
      "Ġrendis": 8845,
      "Ġbesoins": 8846,
      "ĠsoupÃ§on": 8847,
      "Ġautor": 8848,
      "Ġlover": 8849,
      "andises": 8850,
      "Ġrival": 8851,
      "Ġressemble": 8852,
      "Ġvalets": 8853,
      "Ġprocureur": 8854,
      "Ġfavour": 8855,
      "Ġremplacer": 8856,
      "Ġabandonner": 8857,
      "Ġmodeste": 8858,
      "Ġbrillants": 8859,
      "aigu": 8860,
      "Ġsaying": 8861,
      "Ġrangs": 8862,
      "Ã©tranger": 8863,
      "Ġspeaking": 8864,
      "ĠespÃ©rance": 8865,
      "overeign": 8866,
      "ĠfrÃ©quemment": 8867,
      "Ġpersuader": 8868,
      "Ġinterrompit": 8869,
      "Ġdouloureux": 8870,
      "Ġsilencieusement": 8871,
      "ĠBerks": 8872,
      "Ġstatue": 8873,
      "absence": 8874,
      "ĠimbÃ©cile": 8875,
      "ĠdignitÃ©": 8876,
      "Ġcadeau": 8877,
      "ĠExcellency": 8878,
      "ĠCoquenard": 8879,
      "AU": 8880,
      "Do": 8881,
      "Dites": 8882,
      "Tandis": 8883,
      "dge": 8884,
      "dix": 8885,
      "gypte": 8886,
      "haut": 8887,
      "hip": 8888,
      "lÃ©s": 8889,
      "pool": 8890,
      "uaient": 8891,
      "yg": 8892,
      "Ġdaign": 8893,
      "Ã©lice": 8894,
      "oujours": 8895,
      "Ġcors": 8896,
      "Ġmets": 8897,
      "ĠtÃ©lÃ©gr": 8898,
      "entret": 8899,
      "arter": 8900,
      "Ġvar": 8901,
      "ompr": 8902,
      "Ġench": 8903,
      "atoire": 8904,
      "ĠpriÃ¨res": 8905,
      "chaient": 8906,
      "cheurs": 8907,
      "avou": 8908,
      "avanÃ§ait": 8909,
      "Ãªche": 8910,
      "seaux": 8911,
      "ende": 8912,
      "ositÃ©s": 8913,
      "onnai": 8914,
      "ĠMousqueton": 8915,
      "Ã©couter": 8916,
      "acement": 8917,
      "ĠCitÃ©": 8918,
      "illez": 8919,
      "Ã©raire": 8920,
      "illÃ©s": 8921,
      "ĠSherlock": 8922,
      "ĠfrÃ¨res": 8923,
      "Ġbranche": 8924,
      "ĠarmÃ©": 8925,
      "Ġserrer": 8926,
      "Ġask": 8927,
      "Ġasse": 8928,
      "Ġatter": 8929,
      "ĠBol": 8930,
      "ĠBrock": 8931,
      "ĠBazin": 8932,
      "Ġcaresses": 8933,
      "appare": 8934,
      "veil": 8935,
      "ĠrÃ©ch": 8936,
      "ĠHis": 8937,
      "Ġdirect": 8938,
      "owed": 8939,
      "istible": 8940,
      "ĠrestÃ¨rent": 8941,
      "Ġdouleurs": 8942,
      "Ġvivante": 8943,
      "Ġsuivirent": 8944,
      "Ġchariot": 8945,
      "Ġservant": 8946,
      "Ġouvrait": 8947,
      "ĠvolÃ©e": 8948,
      "Ġlivrer": 8949,
      "Ġcalm": 8950,
      "ĠobscuritÃ©": 8951,
      "Ġexcl": 8952,
      "Ġvingtaine": 8953,
      "ĠGrant": 8954,
      "Ġcompliment": 8955,
      "ĠÃ©lÃ¨ve": 8956,
      "Ġgrec": 8957,
      "Ġrespiration": 8958,
      "ollo": 8959,
      "Ġgaleries": 8960,
      "Ġfatale": 8961,
      "Ġproposa": 8962,
      "Ġmoyenne": 8963,
      "Ġpaper": 8964,
      "Ġmarchandises": 8965,
      "ĠfatiguÃ©": 8966,
      "ĠfatiguÃ©e": 8967,
      "occuper": 8968,
      "Ġsavants": 8969,
      "ĠYork": 8970,
      "ĠrÃ©flÃ©chi": 8971,
      "ĠprÃ©parÃ©": 8972,
      "Ġfarouche": 8973,
      "Ġardent": 8974,
      "Ġmonstres": 8975,
      "Ġhappy": 8976,
      "Ġmerveilles": 8977,
      "Ġmangeait": 8978,
      "Ġchoisi": 8979,
      "Ġconclusion": 8980,
      "ĠAvon": 8981,
      "Ġrecula": 8982,
      "Ġmerveilleux": 8983,
      "ĠrÃ©volution": 8984,
      "arrive": 8985,
      "Ġinstrument": 8986,
      "ĠRouge": 8987,
      "Ġgrimp": 8988,
      "Ġgrimace": 8989,
      "ristan": 8990,
      "Ġpistolets": 8991,
      "ĠdÃ©barrasser": 8992,
      "ĠgÃ©nÃ©reux": 8993,
      "Ġhypoc": 8994,
      "Ġdissimuler": 8995,
      "ĠMouquette": 8996,
      "Ġexcursion": 8997,
      "ennemi": 8998,
      "Ag": 8999,
      "Im": 9000,
      "Now": 9001,
      "Roland": 9002,
      "Voyez": 9003,
      "dr": 9004,
      "hÃ©m": 9005,
      "hurst": 9006,
      "ray": 9007,
      "Ġden": 9008,
      "Ġlancer": 9009,
      "Ġpitt": 9010,
      "Ġsain": 9011,
      "ĠfÃ®mes": 9012,
      "Ġfash": 9013,
      "ilair": 9014,
      "Ġvet": 9015,
      "Ġvents": 9016,
      "Ġveste": 9017,
      "Ġviendra": 9018,
      "Ġvraisembl": 9019,
      "Ġbuis": 9020,
      "Ġjoint": 9021,
      "assible": 9022,
      "Ã©tal": 9023,
      "Ã©troit": 9024,
      "Ġgot": 9025,
      "Ġreached": 9026,
      "rices": 9027,
      "Ġneed": 9028,
      "avancer": 9029,
      "Ġdanser": 9030,
      "ouvrage": 9031,
      "Ġwat": 9032,
      "Ġwomen": 9033,
      "amus": 9034,
      "ecte": 9035,
      "apres": 9036,
      "Ġsache": 9037,
      "illart": 9038,
      "ĠSovereign": 9039,
      "ĠLiver": 9040,
      "Ġbrul": 9041,
      "Ġforger": 9042,
      "Ġmaintenir": 9043,
      "ĠNautilus": 9044,
      "assur": 9045,
      "Ġenflam": 9046,
      "Ġentret": 9047,
      "ettaient": 9048,
      "ĠOr": 9049,
      "ĠOlivier": 9050,
      "Ġreprocher": 9051,
      "Ensuite": 9052,
      "Ġwithin": 9053,
      "Ġcorre": 9054,
      "Ġstand": 9055,
      "iquÃ©": 9056,
      "ĠagitÃ©": 9057,
      "inctement": 9058,
      "Åĵu": 9059,
      "Ġcontinuai": 9060,
      "acheter": 9061,
      "accommod": 9062,
      "ĠlevÃ©e": 9063,
      "Ġjouir": 9064,
      "Ġkind": 9065,
      "ĠrentrÃ©": 9066,
      "Ġbarre": 9067,
      "ĠFrilair": 9068,
      "Ġfroids": 9069,
      "Ġsubs": 9070,
      "Ġdisparaissait": 9071,
      "ĠpÃ¢leur": 9072,
      "Ġcouvrait": 9073,
      "Ġfrappait": 9074,
      "Ġveines": 9075,
      "Ġsuccess": 9076,
      "ĠmÃªlÃ©": 9077,
      "ĠbrisÃ©e": 9078,
      "exprimer": 9079,
      "Ġ20": 9080,
      "Ġroulait": 9081,
      "Atlantique": 9082,
      "ĠÃ©prouvÃ©": 9083,
      "Ġpanneaux": 9084,
      "pentier": 9085,
      "ĠrÃ©duit": 9086,
      "ĠAvez": 9087,
[...]
